{
  "version": "1.0",
  "truncation": {
    "direction": "Right",
    "max_length": 128,
    "strategy": "LongestFirst",
    "stride": 0
  },
  "padding": {
    "strategy": {
      "Fixed": 128
    },
    "direction": "Right",
    "pad_to_multiple_of": null,
    "pad_id": 0,
    "pad_type_id": 0,
    "pad_token": "[PAD]"
  },
  "added_tokens": [
    {
      "id": 0,
      "content": "[PAD]",
      "single_word": false,
      "lstrip": false,
      "rstrip": false,
      "normalized": false,
      "special": true
    },
    {
      "id": 1,
      "content": "[UNK]",
      "single_word": false,
      "lstrip": false,
      "rstrip": false,
      "normalized": false,
      "special": true
    },
    {
      "id": 2,
      "content": "[CLS]",
      "single_word": false,
      "lstrip": false,
      "rstrip": false,
      "normalized": false,
      "special": true
    },
    {
      "id": 3,
      "content": "[SEP]",
      "single_word": false,
      "lstrip": false,
      "rstrip": false,
      "normalized": false,
      "special": true
    },
    {
      "id": 4,
      "content": "[MASK]",
      "single_word": false,
      "lstrip": false,
      "rstrip": false,
      "normalized": false,
      "special": true
    }
  ],
  "normalizer": {
    "type": "BertNormalizer",
    "clean_text": true,
    "handle_chinese_chars": true,
    "strip_accents": null,
    "lowercase": true
  },
  "pre_tokenizer": {
    "type": "BertPreTokenizer"
  },
  "post_processor": {
    "type": "TemplateProcessing",
    "single": [
      {
        "SpecialToken": {
          "id": "[CLS]",
          "type_id": 0
        }
      },
      {
        "Sequence": {
          "id": "A",
          "type_id": 0
        }
      },
      {
        "SpecialToken": {
          "id": "[SEP]",
          "type_id": 0
        }
      }
    ],
    "pair": [
      {
        "SpecialToken": {
          "id": "[CLS]",
          "type_id": 0
        }
      },
      {
        "Sequence": {
          "id": "A",
          "type_id": 0
        }
      },
      {
        "SpecialToken": {
          "id": "[SEP]",
          "type_id": 0
        }
      },
      {
        "Sequence": {
          "id": "B",
          "type_id": 1
        }
      },
      {
        "SpecialToken": {
          "id": "[SEP]",
          "type_id": 1
        }
      }
    ],
    "special_tokens": {
      "[CLS]": {
        "id": "[CLS]",
        "ids": [
          2
        ],
        "tokens": [
          "[CLS]"
        ]
      },
      "[SEP]": {
        "id": "[SEP]",
        "ids": [
          3
        ],
        "tokens": [
          "[SEP]"
        ]
      }
    }
  },
  "decoder": {
    "type": "WordPiece",
    "prefix": "##",
    "cleanup": true
  },
  "model": {
    "type": "WordPiece",
    "unk_token": "[UNK]",
    "continuing_subword_prefix": "##",
    "max_input_chars_per_word": 100,
    "vocab": {
      "[PAD]": 0,
      "[UNK]": 1,
      "[CLS]": 2,
      "[SEP]": 3,
      "[MASK]": 4,
      "'": 5,
      ",": 6,
      "0": 7,
      "1": 8,
      "2": 9,
      "3": 10,
      "4": 11,
      "5": 12,
      "6": 13,
      "7": 14,
      "8": 15,
      "9": 16,
      "[": 17,
      "\\": 18,
      "]": 19,
      "a": 20,
      "b": 21,
      "c": 22,
      "d": 23,
      "e": 24,
      "f": 25,
      "g": 26,
      "h": 27,
      "i": 28,
      "j": 29,
      "k": 30,
      "l": 31,
      "m": 32,
      "n": 33,
      "o": 34,
      "p": 35,
      "q": 36,
      "r": 37,
      "s": 38,
      "t": 39,
      "u": 40,
      "v": 41,
      "w": 42,
      "x": 43,
      "y": 44,
      "z": 45,
      "##u": 46,
      "##r": 47,
      "##o": 48,
      "##p": 49,
      "##e": 50,
      "##a": 51,
      "##n": 52,
      "##i": 53,
      "##d": 54,
      "##g": 55,
      "##s": 56,
      "##k": 57,
      "##m": 58,
      "##x": 59,
      "##c": 60,
      "##t": 61,
      "##v": 62,
      "##l": 63,
      "##y": 64,
      "##b": 65,
      "##h": 66,
      "##w": 67,
      "##f": 68,
      "##0": 69,
      "##z": 70,
      "##4": 71,
      "##5": 72,
      "##j": 73,
      "##1": 74,
      "##q": 75,
      "##2": 76,
      "##7": 77,
      "##6": 78,
      "##3": 79,
      "##8": 80,
      "##9": 81,
      "##er": 82,
      "th": 83,
      "##nd": 84,
      "##oo": 85,
      "the": 86,
      "##ta": 87,
      "##as": 88,
      "##el": 89,
      "and": 90,
      "##in": 91,
      "##ea": 92,
      "##on": 93,
      "##ce": 94,
      "sta": 95,
      "was": 96,
      "##or": 97,
      "##ti": 98,
      "##ed": 99,
      "##ot": 100,
      "##ood": 101,
      "##ing": 102,
      "##en": 103,
      "##ff": 104,
      "##ou": 105,
      "##ery": 106,
      "##oom": 107,
      "##es": 108,
      "##tion": 109,
      "to": 110,
      "##it": 111,
      "##om": 112,
      "good": 113,
      "is": 114,
      "staff": 115,
      "room": 116,
      "very": 117,
      "##ly": 118,
      "##le": 119,
      "##ice": 120,
      "hot": 121,
      "in": 122,
      "##an": 123,
      "##al": 124,
      "hotel": 125,
      "lo": 126,
      "##at": 127,
      "##re": 128,
      "##ere": 129,
      "cl": 130,
      "##is": 131,
      "##rea": 132,
      "##ation": 133,
      "loc": 134,
      "for": 135,
      "##ar": 136,
      "##ean": 137,
      "##ec": 138,
      "fr": 139,
      "clean": 140,
      "##ul": 141,
      "location": 142,
      "pr": 143,
      "ex": 144,
      "##ble": 145,
      "##et": 146,
      "stay": 147,
      "al": 148,
      "of": 149,
      "it": 150,
      "##ent": 151,
      "##ve": 152,
      "##ful": 153,
      "##per": 154,
      "##il": 155,
      "##ut": 156,
      "##end": 157,
      "com": 158,
      "##th": 159,
      "##os": 160,
      "##ur": 161,
      "##elp": 162,
      "##ell": 163,
      "##id": 164,
      "help": 165,
      "were": 166,
      "ha": 167,
      "##ir": 168,
      "##ith": 169,
      "##erv": 170,
      "at": 171,
      "not": 172,
      "with": 173,
      "##gh": 174,
      "nice": 175,
      "are": 176,
      "##ay": 177,
      "##ast": 178,
      "serv": 179,
      "##ic": 180,
      "##ac": 181,
      "pro": 182,
      "service": 183,
      "ch": 184,
      "##for": 185,
      "food": 186,
      "ev": 187,
      "on": 188,
      "wh": 189,
      "rooms": 190,
      "helpful": 191,
      "##reat": 192,
      "we": 193,
      "##ous": 194,
      "##iend": 195,
      "they": 196,
      "friend": 197,
      "great": 198,
      "you": 199,
      "##us": 200,
      "##reak": 201,
      "##igh": 202,
      "##fast": 203,
      "##table": 204,
      "this": 205,
      "##reakfast": 206,
      "##king": 207,
      "as": 208,
      "be": 209,
      "comfor": 210,
      "sp": 211,
      "re": 212,
      "friendly": 213,
      "breakfast": 214,
      "ne": 215,
      "am": 216,
      "##ity": 217,
      "##est": 218,
      "pl": 219,
      "##ace": 220,
      "del": 221,
      "##ke": 222,
      "comfortable": 223,
      "all": 224,
      "##ain": 225,
      "but": 226,
      "##ow": 227,
      "##ty": 228,
      "##ver": 229,
      "my": 230,
      "##ch": 231,
      "rea": 232,
      "nea": 233,
      "##am": 234,
      "##ess": 235,
      "##nt": 236,
      "##ien": 237,
      "##ely": 238,
      "tr": 239,
      "from": 240,
      "##ld": 241,
      "##im": 242,
      "##so": 243,
      "##all": 244,
      "su": 245,
      "an": 246,
      "##por": 247,
      "every": 248,
      "##ge": 249,
      "##ious": 250,
      "ac": 251,
      "li": 252,
      "so": 253,
      "there": 254,
      "##hi": 255,
      "that": 256,
      "##ight": 257,
      "place": 258,
      "##one": 259,
      "qu": 260,
      "##ad": 261,
      "no": 262,
      "##ant": 263,
      "me": 264,
      "well": 265,
      "boo": 266,
      "##lly": 267,
      "had": 268,
      "sh": 269,
      "##our": 270,
      "##ter": 271,
      "##ience": 272,
      "also": 273,
      "##cell": 274,
      "proper": 275,
      "##ption": 276,
      "near": 277,
      "##cellent": 278,
      "wor": 279,
      "##av": 280,
      "##ked": 281,
      "really": 282,
      "excellent": 283,
      "##ite": 284,
      "##able": 285,
      "##port": 286,
      "##room": 287,
      "##ome": 288,
      "air": 289,
      "##omm": 290,
      "delhi": 291,
      "have": 292,
      "##ust": 293,
      "bed": 294,
      "##thing": 295,
      "##tive": 296,
      "##ill": 297,
      "us": 298,
      "##az": 299,
      "##ould": 300,
      "res": 301,
      "##ro": 302,
      "exper": 303,
      "property": 304,
      "our": 305,
      "experience": 306,
      "chec": 307,
      "de": 308,
      "en": 309,
      "man": 310,
      "##ers": 311,
      "its": 312,
      "##ties": 313,
      "##ind": 314,
      "everything": 315,
      "##ception": 316,
      "##ue": 317,
      "##ond": 318,
      "##way": 319,
      "con": 320,
      "##ol": 321,
      "##pp": 322,
      "airport": 323,
      "hos": 324,
      "over": 325,
      "##ect": 326,
      "##ities": 327,
      "##azing": 328,
      "sa": 329,
      "station": 330,
      "##hroom": 331,
      "amazing": 332,
      "check": 333,
      "like": 334,
      "price": 335,
      "##oney": 336,
      "by": 337,
      "money": 338,
      "##ail": 339,
      "ar": 340,
      "##the": 341,
      "##acious": 342,
      "rec": 343,
      "##ud": 344,
      "##ose": 345,
      "spacious": 346,
      "tim": 347,
      "did": 348,
      "##ag": 349,
      "booking": 350,
      "best": 351,
      "##ate": 352,
      "out": 353,
      "ab": 354,
      "##ple": 355,
      "##ally": 356,
      "##ri": 357,
      "##vid": 358,
      "##out": 359,
      "will": 360,
      "than": 361,
      "##ommend": 362,
      "reception": 363,
      "mor": 364,
      "main": 365,
      "need": 366,
      "recommend": 367,
      "##ated": 368,
      "ta": 369,
      "provid": 370,
      "fac": 371,
      "too": 372,
      "bat": 373,
      "per": 374,
      "met": 375,
      "night": 376,
      "##od": 377,
      "##ig": 378,
      "nthe": 379,
      "or": 380,
      "##tr": 381,
      "##ich": 382,
      "beh": 383,
      "which": 384,
      "##ont": 385,
      "close": 386,
      "time": 387,
      "facil": 388,
      "val": 389,
      "##ment": 390,
      "##ough": 391,
      "metro": 392,
      "day": 393,
      "ma": 394,
      "##st": 395,
      "behav": 396,
      "coo": 397,
      "##tal": 398,
      "##taur": 399,
      "##ater": 400,
      "even": 401,
      "any": 402,
      "value": 403,
      "##taurant": 404,
      "sm": 405,
      "bathroom": 406,
      "area": 407,
      "can": 408,
      "restaurant": 409,
      "overall": 410,
      "ag": 411,
      "##ew": 412,
      "##ks": 413,
      "##ist": 414,
      "##com": 415,
      "##ard": 416,
      "##fect": 417,
      "pol": 418,
      "##pi": 419,
      "if": 420,
      "vis": 421,
      "##ality": 422,
      "here": 423,
      "##qu": 424,
      "one": 425,
      "when": 426,
      "perfect": 427,
      "would": 428,
      "##ep": 429,
      "##ile": 430,
      "##hing": 431,
      "##ound": 432,
      "hospi": 433,
      "behavi": 434,
      "##fe": 435,
      "##eci": 436,
      "high": 437,
      "just": 438,
      "gu": 439,
      "water": 440,
      "new": 441,
      "again": 442,
      "he": 443,
      "##ily": 444,
      "##ark": 445,
      "kind": 446,
      "polite": 447,
      "lov": 448,
      "only": 449,
      "facilities": 450,
      "##lin": 451,
      "##fter": 452,
      "up": 453,
      "##tic": 454,
      "exp": 455,
      "av": 456,
      "des": 457,
      "##iz": 458,
      "##ative": 459,
      "nothing": 460,
      "after": 461,
      "st": 462,
      "##oy": 463,
      "##oor": 464,
      "##ost": 465,
      "##ame": 466,
      "visit": 467,
      "##si": 468,
      "##ide": 469,
      "##ner": 470,
      "more": 471,
      "dis": 472,
      "im": 473,
      "##ven": 474,
      "their": 475,
      "super": 476,
      "##ure": 477,
      "quality": 478,
      "show": 479,
      "wal": 480,
      "##age": 481,
      "##ten": 482,
      "trav": 483,
      "manag": 484,
      "cooper": 485,
      "get": 486,
      "off": 487,
      "pre": 488,
      "##un": 489,
      "acc": 490,
      "avail": 491,
      "some": 492,
      "##ab": 493,
      "fam": 494,
      "ok": 495,
      "##ient": 496,
      "##tain": 497,
      "staffs": 498,
      "didnt": 499,
      "hospital": 500,
      "big": 501,
      "par": 502,
      "##um": 503,
      "##iet": 504,
      "bea": 505,
      "eas": 506,
      "##uti": 507,
      "##if": 508,
      "##ion": 509,
      "fl": 510,
      "un": 511,
      "##sta": 512,
      "your": 513,
      "hospitality": 514,
      "##utiful": 515,
      "di": 516,
      "pe": 517,
      "beautiful": 518,
      "go": 519,
      "has": 520,
      "hotels": 521,
      "stayed": 522,
      "safe": 523,
      "provided": 524,
      "ple": 525,
      "##cent": 526,
      "cooperative": 527,
      "available": 528,
      "pleas": 529,
      "do": 530,
      "neat": 531,
      "##liness": 532,
      "ad": 533,
      "min": 534,
      "##icious": 535,
      "family": 536,
      "could": 537,
      "char": 538,
      "host": 539,
      "##ecially": 540,
      "peo": 541,
      "app": 542,
      "bad": 543,
      "oth": 544,
      "##pt": 545,
      "##erful": 546,
      "thing": 547,
      "ext": 548,
      "delicious": 549,
      "##ade": 550,
      "working": 551,
      "##ways": 552,
      "co": 553,
      "fe": 554,
      "gi": 555,
      "vi": 556,
      "wel": 557,
      "wond": 558,
      "inc": 559,
      "who": 560,
      "about": 561,
      "mu": 562,
      "mark": 563,
      "se": 564,
      "##fin": 565,
      "##ear": 566,
      "##ession": 567,
      "beds": 568,
      "enj": 569,
      "behaviour": 570,
      "people": 571,
      "##and": 572,
      "##te": 573,
      "services": 574,
      "##ommod": 575,
      "defin": 576,
      "manager": 577,
      "accommod": 578,
      "wonderful": 579,
      "enjoy": 580,
      "ind": 581,
      "##ning": 582,
      "##ces": 583,
      "##itely": 584,
      "located": 585,
      "always": 586,
      "##tained": 587,
      "##se": 588,
      "cleanliness": 589,
      "##ack": 590,
      "requ": 591,
      "definitely": 592,
      "fan": 593,
      "##by": 594,
      "##00": 595,
      "inter": 596,
      "##ree": 597,
      "ca": 598,
      "##fession": 599,
      "##oth": 600,
      "##arly": 601,
      "booked": 602,
      "##ifi": 603,
      "bu": 604,
      "tast": 605,
      "atten": 606,
      "quiet": 607,
      "city": 608,
      "cour": 609,
      "##ition": 610,
      "##ance": 611,
      "maintained": 612,
      "small": 613,
      "other": 614,
      "much": 615,
      "dont": 616,
      "rail": 617,
      "##ine": 618,
      "##ick": 619,
      "decent": 620,
      "aw": 621,
      "call": 622,
      "dir": 623,
      "ro": 624,
      "wifi": 625,
      "##pl": 626,
      "##rem": 627,
      "##ise": 628,
      "extrem": 629,
      "made": 630,
      "##ged": 631,
      "##tle": 632,
      "##enities": 633,
      "##tions": 634,
      "sup": 635,
      "easy": 636,
      "railway": 637,
      "bet": 638,
      "siz": 639,
      "##ry": 640,
      "ow": 641,
      "pa": 642,
      "pers": 643,
      "##tan": 644,
      "##ating": 645,
      "profession": 646,
      "quite": 647,
      "market": 648,
      "indi": 649,
      "extremely": 650,
      "person": 651,
      "##get": 652,
      "##use": 653,
      "amenities": 654,
      "highly": 655,
      "dirty": 656,
      "cent": 657,
      "tea": 658,
      "amb": 659,
      "##tra": 660,
      "diff": 661,
      "feel": 662,
      "es": 663,
      "loo": 664,
      "##oc": 665,
      "##side": 666,
      "##ong": 667,
      "resp": 668,
      "take": 669,
      "guest": 670,
      "bus": 671,
      "early": 672,
      "home": 673,
      "around": 674,
      "##ered": 675,
      "extra": 676,
      "##ouse": 677,
      "liked": 678,
      "conven": 679,
      "make": 680,
      "awes": 681,
      "##tance": 682,
      "lot": 683,
      "want": 684,
      "##em": 685,
      "##ted": 686,
      "##yg": 687,
      "train": 688,
      "back": 689,
      "ni": 690,
      "##ip": 691,
      "##ort": 692,
      "helped": 693,
      "reach": 694,
      "convenient": 695,
      "bec": 696,
      "most": 697,
      "##eet": 698,
      "##ved": 699,
      "washroom": 700,
      "##itch": 701,
      "##ange": 702,
      "front": 703,
      "come": 704,
      "thank": 705,
      "lovely": 706,
      "travel": 707,
      "##teous": 708,
      "courteous": 709,
      "road": 710,
      "size": 711,
      "professional": 712,
      "awesome": 713,
      "pay": 714,
      "rel": 715,
      "##op": 716,
      "##pr": 717,
      "##dy": 718,
      "##here": 719,
      "##rec": 720,
      "happ": 721,
      "where": 722,
      "loved": 723,
      "desk": 724,
      "##ygien": 725,
      "how": 726,
      "lu": 727,
      "men": 728,
      "sec": 729,
      "##ause": 730,
      "##very": 731,
      "##tas": 732,
      "##ish": 733,
      "morning": 734,
      "distance": 735,
      "better": 736,
      "because": 737,
      "fir": 738,
      "nw": 739,
      "##ach": 740,
      "nearby": 741,
      "arri": 742,
      "request": 743,
      "bud": 744,
      "din": 745,
      "house": 746,
      "kitch": 747,
      "lit": 748,
      "mr": 749,
      "##red": 750,
      "##ior": 751,
      "##ied": 752,
      "##mb": 753,
      "ever": 754,
      "##ondition": 755,
      "checkin": 756,
      "walk": 757,
      "view": 758,
      "welcom": 759,
      "fantas": 760,
      "care": 761,
      "budget": 762,
      "fantastic": 763,
      "find": 764,
      "got": 765,
      "##xt": 766,
      "them": 767,
      "what": 768,
      "been": 769,
      "space": 770,
      "##ilet": 771,
      "kitchen": 772,
      "option": 773,
      "##good": 774,
      "##xi": 775,
      "##ting": 776,
      "##ason": 777,
      "##ord": 778,
      "toilet": 779,
      "chea": 780,
      "many": 781,
      "attentive": 782,
      "condition": 783,
      "gr": 784,
      "lar": 785,
      "tour": 786,
      "went": 787,
      "reason": 788,
      "##portive": 789,
      "supportive": 790,
      "first": 791,
      "ful": 792,
      "hour": 793,
      "hygien": 794,
      "say": 795,
      "tv": 796,
      "tw": 797,
      "##ans": 798,
      "pleasant": 799,
      "enjoyed": 800,
      "little": 801,
      "few": 802,
      "name": 803,
      "way": 804,
      "##pecially": 805,
      "##ft": 806,
      "worth": 807,
      "needed": 808,
      "large": 809,
      "away": 810,
      "##par": 811,
      "##hot": 812,
      "##ool": 813,
      "##ass": 814,
      "exception": 815,
      "comm": 816,
      "##fore": 817,
      "bookingcom": 818,
      "took": 819,
      "##sive": 820,
      "shower": 821,
      "##cess": 822,
      "happy": 823,
      "24": 824,
      "poor": 825,
      "##oin": 826,
      "##ha": 827,
      "##fy": 828,
      "though": 829,
      "##esh": 830,
      "love": 831,
      "next": 832,
      "provide": 833,
      "ord": 834,
      "walking": 835,
      "##other": 836,
      "ambience": 837,
      "differ": 838,
      "especially": 839,
      "respon": 840,
      "welcoming": 841,
      "ke": 842,
      "kn": 843,
      "##ove": 844,
      "##gg": 845,
      "##to": 846,
      "##ving": 847,
      "##eal": 848,
      "prom": 849,
      "staying": 850,
      "short": 851,
      "enough": 852,
      "travell": 853,
      "cust": 854,
      "free": 855,
      "pea": 856,
      "##lut": 857,
      "before": 858,
      "##solut": 859,
      "pret": 860,
      "owner": 861,
      "custom": 862,
      "sle": 863,
      "sur": 864,
      "sim": 865,
      "var": 866,
      "##lud": 867,
      "##elt": 868,
      "cleaning": 869,
      "trans": 870,
      "another": 871,
      "book": 872,
      "work": 873,
      "manage": 874,
      "absolut": 875,
      "restaurants": 876,
      "behavior": 877,
      "floor": 878,
      "##staff": 879,
      "tasty": 880,
      "rela": 881,
      "peace": 882,
      "pretty": 883,
      "car": 884,
      "felt": 885,
      "late": 886,
      "old": 887,
      "pool": 888,
      "##bl": 889,
      "then": 890,
      "##ffic": 891,
      "##uring": 892,
      "asked": 893,
      "worst": 894,
      "arr": 895,
      "taxi": 896,
      "##ign": 897,
      "includ": 898,
      "india": 899,
      "team": 900,
      "dinner": 901,
      "full": 902,
      "different": 903,
      "fa": 904,
      "pos": 905,
      "##oice": 906,
      "##gan": 907,
      "##tu": 908,
      "stand": 909,
      "##ount": 910,
      "while": 911,
      "never": 912,
      "trip": 913,
      "days": 914,
      "minut": 915,
      "give": 916,
      "incred": 917,
      "management": 918,
      "incredi": 919,
      "ent": 920,
      "ngood": 921,
      "rest": 922,
      "sw": 923,
      "same": 924,
      "##ap": 925,
      "##ll": 926,
      "##food": 927,
      "cleaned": 928,
      "comfy": 929,
      "specially": 930,
      "said": 931,
      "thanks": 932,
      "##sible": 933,
      "add": 934,
      "accommodating": 935,
      "absolutely": 936,
      "bit": 937,
      "fast": 938,
      "his": 939,
      "must": 940,
      "nn": 941,
      "##ever": 942,
      "##bly": 943,
      "##tiv": 944,
      "##ild": 945,
      "compl": 946,
      "without": 947,
      "comfort": 948,
      "speci": 949,
      "memb": 950,
      "##eping": 951,
      "imp": 952,
      "two": 953,
      "during": 954,
      "fab": 955,
      "fine": 956,
      "le": 957,
      "nd": 958,
      "wa": 959,
      "##yond": 960,
      "star": 961,
      "##tis": 962,
      "iss": 963,
      "atm": 964,
      "beyond": 965,
      "cons": 966,
      "guy": 967,
      "expec": 968,
      "hostel": 969,
      "reasonable": 970,
      "know": 971,
      "10": 972,
      "dec": 973,
      "na": 974,
      "nb": 975,
      "pic": 976,
      "##up": 977,
      "##har": 978,
      "allow": 979,
      "ready": 980,
      "such": 981,
      "outside": 982,
      "flight": 983,
      "##reci": 984,
      "options": 985,
      "exceptional": 986,
      "peaceful": 987,
      "expecta": 988,
      "br": 989,
      "bas": 990,
      "hum": 991,
      "mod": 992,
      "nvery": 993,
      "sit": 994,
      "##ct": 995,
      "##ash": 996,
      "tow": 997,
      "##reet": 998,
      "##urn": 999,
      "##act": 1000,
      "choice": 1001,
      "##form": 1002,
      "ass": 1003,
      "receptionist": 1004,
      "recommended": 1005,
      "superb": 1006,
      "appreci": 1007,
      "things": 1008,
      "mention": 1009,
      "standard": 1010,
      "den": 1011,
      "dri": 1012,
      "ns": 1013,
      "##gr": 1014,
      "##cl": 1015,
      "##loc": 1016,
      "##ern": 1017,
      "thr": 1018,
      "told": 1019,
      "##anged": 1020,
      "##ations": 1021,
      "local": 1022,
      "exce": 1023,
      "try": 1024,
      "sure": 1025,
      "checkout": 1026,
      "##ude": 1027,
      "above": 1028,
      "see": 1029,
      "cheap": 1030,
      "prompt": 1031,
      "sleep": 1032,
      "ba": 1033,
      "dr": 1034,
      "nroom": 1035,
      "##phere": 1036,
      "##ave": 1037,
      "##xur": 1038,
      "##con": 1039,
      "##ber": 1040,
      "##blem": 1041,
      "##osphere": 1042,
      "problem": 1043,
      "quick": 1044,
      "expect": 1045,
      "part": 1046,
      "buff": 1047,
      "centr": 1048,
      "guests": 1049,
      "arrived": 1050,
      "customer": 1051,
      "atmosphere": 1052,
      "expectations": 1053,
      "effic": 1054,
      "nth": 1055,
      "right": 1056,
      "##ness": 1057,
      "##ie": 1058,
      "##day": 1059,
      "##ya": 1060,
      "##elf": 1061,
      "##enta": 1062,
      "##ence": 1063,
      "clos": 1064,
      "##arm": 1065,
      "fresh": 1066,
      "##own": 1067,
      "actu": 1068,
      "conn": 1069,
      "needs": 1070,
      "facility": 1071,
      "does": 1072,
      "charged": 1073,
      "given": 1074,
      "intern": 1075,
      "##eets": 1076,
      "luxur": 1077,
      "hours": 1078,
      "relax": 1079,
      "incredibly": 1080,
      "buffet": 1081,
      "bal": 1082,
      "both": 1083,
      "et": 1084,
      "gen": 1085,
      "hear": 1086,
      "kar": 1087,
      "nstaff": 1088,
      "str": 1089,
      "##pen": 1090,
      "##ial": 1091,
      "##ink": 1092,
      "##iness": 1093,
      "inside": 1094,
      "being": 1095,
      "offered": 1096,
      "taste": 1097,
      "15": 1098,
      "em": 1099,
      "long": 1100,
      "sc": 1101,
      "wind": 1102,
      "##zy": 1103,
      "##ensive": 1104,
      "top": 1105,
      "##ank": 1106,
      "##ath": 1107,
      "coming": 1108,
      "acces": 1109,
      "noise": 1110,
      "should": 1111,
      "checked": 1112,
      "nights": 1113,
      "expensive": 1114,
      "parking": 1115,
      "interior": 1116,
      "indian": 1117,
      "houseke": 1118,
      "hygienic": 1119,
      "minutes": 1120,
      "through": 1121,
      "efficient": 1122,
      "window": 1123,
      "cou": 1124,
      "lea": 1125,
      "mat": 1126,
      "nh": 1127,
      "ter": 1128,
      "##uff": 1129,
      "##ken": 1130,
      "##yo": 1131,
      "##nding": 1132,
      "##ory": 1133,
      "##ised": 1134,
      "within": 1135,
      "##ighb": 1136,
      "neighb": 1137,
      "everyone": 1138,
      "places": 1139,
      "hospitable": 1140,
      "shown": 1141,
      "paid": 1142,
      "nwe": 1143,
      "special": 1144,
      "members": 1145,
      "basic": 1146,
      "modern": 1147,
      "##entary": 1148,
      "etc": 1149,
      "housekeeping": 1150,
      "cost": 1151,
      "each": 1152,
      "far": 1153,
      "him": 1154,
      "list": 1155,
      "nit": 1156,
      "pick": 1157,
      "phot": 1158,
      "rate": 1159,
      "##ming": 1160,
      "##come": 1161,
      "##vi": 1162,
      "##lo": 1163,
      "##li": 1164,
      "##less": 1165,
      "##bs": 1166,
      "##hood": 1167,
      "##ase": 1168,
      "prim": 1169,
      "##ired": 1170,
      "reg": 1171,
      "ref": 1172,
      "##porta": 1173,
      "properly": 1174,
      "env": 1175,
      "satis": 1176,
      "times": 1177,
      "##trac": 1178,
      "couldnt": 1179,
      "cozy": 1180,
      "welcome": 1181,
      "called": 1182,
      "##pared": 1183,
      "order": 1184,
      "wait": 1185,
      "pict": 1186,
      "humble": 1187,
      "aff": 1188,
      "eat": 1189,
      "hea": 1190,
      "open": 1191,
      "pur": 1192,
      "warm": 1193,
      "##uly": 1194,
      "##ee": 1195,
      "##aj": 1196,
      "##aud": 1197,
      "##not": 1198,
      "##iv": 1199,
      "##tally": 1200,
      "##onment": 1201,
      "inform": 1202,
      "##ility": 1203,
      "##ures": 1204,
      "##ironment": 1205,
      "friends": 1206,
      "ask": 1207,
      "spot": 1208,
      "rem": 1209,
      "plus": 1210,
      "ens": 1211,
      "conf": 1212,
      "making": 1213,
      "##line": 1214,
      "street": 1215,
      "okay": 1216,
      "accommodation": 1217,
      "build": 1218,
      "own": 1219,
      "busy": 1220,
      "business": 1221,
      "second": 1222,
      "decor": 1223,
      "##clean": 1224,
      "actually": 1225,
      "environment": 1226,
      "afford": 1227,
      "door": 1228,
      "found": 1229,
      "id": 1230,
      "let": 1231,
      "light": 1232,
      "mid": 1233,
      "soo": 1234,
      "set": 1235,
      "und": 1236,
      "##ak": 1237,
      "##ies": 1238,
      "##med": 1239,
      "##ts": 1240,
      "##led": 1241,
      "##where": 1242,
      "##ooth": 1243,
      "totally": 1244,
      "##ary": 1245,
      "comple": 1246,
      "attrac": 1247,
      "areas": 1248,
      "served": 1249,
      "change": 1250,
      "##fortable": 1251,
      "online": 1252,
      "rep": 1253,
      "##ched": 1254,
      "##imentary": 1255,
      "outsta": 1256,
      "##ments": 1257,
      "bathrooms": 1258,
      "##iety": 1259,
      "please": 1260,
      "charge": 1261,
      "seen": 1262,
      "pahar": 1263,
      "however": 1264,
      "requests": 1265,
      "hygiene": 1266,
      "common": 1267,
      "impro": 1268,
      "##cony": 1269,
      "balcony": 1270,
      "photos": 1271,
      "prime": 1272,
      "satisf": 1273,
      "outstanding": 1274,
      "bir": 1275,
      "card": 1276,
      "came": 1277,
      "dou": 1278,
      "done": 1279,
      "down": 1280,
      "gave": 1281,
      "mis": 1282,
      "meal": 1283,
      "nm": 1284,
      "oyo": 1285,
      "rs": 1286,
      "sing": 1287,
      "##ress": 1288,
      "##au": 1289,
      "##are": 1290,
      "##ck": 1291,
      "##val": 1292,
      "##till": 1293,
      "##oment": 1294,
      "inn": 1295,
      "##ang": 1296,
      "##ately": 1297,
      "##read": 1298,
      "locality": 1299,
      "fraud": 1300,
      "##icul": 1301,
      "delight": 1302,
      "truly": 1303,
      "sugg": 1304,
      "shop": 1305,
      "use": 1306,
      "##pped": 1307,
      "smooth": 1308,
      "design": 1309,
      "stuff": 1310,
      "visiting": 1311,
      "charg": 1312,
      "whole": 1313,
      "enjoyable": 1314,
      "center": 1315,
      "lugg": 1316,
      "tourist": 1317,
      "##ointed": 1318,
      "variety": 1319,
      "including": 1320,
      "##ganj": 1321,
      "complimentary": 1322,
      "issue": 1323,
      "central": 1324,
      "gener": 1325,
      "building": 1326,
      "affordable": 1327,
      "able": 1328,
      "ele": 1329,
      "hu": 1330,
      "may": 1331,
      "moment": 1332,
      "non": 1333,
      "still": 1334,
      "tid": 1335,
      "##pe": 1336,
      "##iance": 1337,
      "##most": 1338,
      "##be": 1339,
      "##ering": 1340,
      "##tail": 1341,
      "##ates": 1342,
      "##reen": 1343,
      "frid": 1344,
      "priv": 1345,
      "spread": 1346,
      "plan": 1347,
      "lift": 1348,
      "providing": 1349,
      "attention": 1350,
      "support": 1351,
      "difficul": 1352,
      "reached": 1353,
      "##press": 1354,
      "keep": 1355,
      "fake": 1356,
      "allowed": 1357,
      "denied": 1358,
      "driver": 1359,
      "##location": 1360,
      "exceed": 1361,
      "accessible": 1362,
      "luggage": 1363,
      "tidy": 1364,
      "fridge": 1365,
      "bl": 1366,
      "cor": 1367,
      "el": 1368,
      "end": 1369,
      "fi": 1370,
      "gl": 1371,
      "hard": 1372,
      "mo": 1373,
      "n2": 1374,
      "num": 1375,
      "sea": 1376,
      "side": 1377,
      "wr": 1378,
      "##ux": 1379,
      "##ey": 1380,
      "##app": 1381,
      "##ym": 1382,
      "##bby": 1383,
      "##hr": 1384,
      "##we": 1385,
      "##fr": 1386,
      "##tire": 1387,
      "##ready": 1388,
      "##ets": 1389,
      "almost": 1390,
      "already": 1391,
      "che": 1392,
      "delux": 1393,
      "nois": 1394,
      "dem": 1395,
      "entire": 1396,
      "##rible": 1397,
      "upgr": 1398,
      "office": 1399,
      "adv": 1400,
      "coff": 1401,
      "looking": 1402,
      "looked": 1403,
      "wanted": 1404,
      "travelers": 1405,
      "menu": 1406,
      "secur": 1407,
      "responsive": 1408,
      "surpr": 1409,
      "simple": 1410,
      "consid": 1411,
      "towel": 1412,
      "mentioned": 1413,
      "doesnt": 1414,
      "attractions": 1415,
      "paharganj": 1416,
      "double": 1417,
      "single": 1418,
      "12": 1419,
      "aer": 1420,
      "aut": 1421,
      "baz": 1422,
      "cr": 1423,
      "green": 1424,
      "hor": 1425,
      "nam": 1426,
      "put": 1427,
      "ret": 1428,
      "rude": 1429,
      "##ov": 1430,
      "##ita": 1431,
      "##que": 1432,
      "inv": 1433,
      "##ational": 1434,
      "hand": 1435,
      "##verall": 1436,
      "worked": 1437,
      "##rop": 1438,
      "detail": 1439,
      "conta": 1440,
      "nthey": 1441,
      "organ": 1442,
      "perfectly": 1443,
      "##unning": 1444,
      "bedsh": 1445,
      "ambiance": 1446,
      "ordered": 1447,
      "arrange": 1448,
      "appreciated": 1449,
      "bagh": 1450,
      "neighbor": 1451,
      "huge": 1452,
      "deluxe": 1453,
      "coffee": 1454,
      "bot": 1455,
      "bar": 1456,
      "bag": 1457,
      "col": 1458,
      "her": 1459,
      "mar": 1460,
      "nic": 1461,
      "nfood": 1462,
      "ph": 1463,
      "park": 1464,
      "poin": 1465,
      "roo": 1466,
      "ser": 1467,
      "sound": 1468,
      "ty": 1469,
      "table": 1470,
      "##eed": 1471,
      "##ees": 1472,
      "##na": 1473,
      "##night": 1474,
      "##ipped": 1475,
      "##sw": 1476,
      "##xim": 1477,
      "##cy": 1478,
      "##cri": 1479,
      "##ling": 1480,
      "##inen": 1481,
      "##cept": 1482,
      "##orm": 1483,
      "##tit": 1484,
      "ins": 1485,
      "lobby": 1486,
      "##ulous": 1487,
      "##though": 1488,
      "proxim": 1489,
      "choo": 1490,
      "changed": 1491,
      "once": 1492,
      "webs": 1493,
      "amount": 1494,
      "##amp": 1495,
      "access": 1496,
      "living": 1497,
      "soap": 1498,
      "solo": 1499,
      "meet": 1500,
      "works": 1501,
      "resid": 1502,
      "itself": 1503,
      "saf": 1504,
      "behaved": 1505,
      "anything": 1506,
      "smell": 1507,
      "smile": 1508,
      "##tenance": 1509,
      "easily": 1510,
      "going": 1511,
      "required": 1512,
      "lots": 1513,
      "##ems": 1514,
      "payment": 1515,
      "##hotel": 1516,
      "response": 1517,
      "transport": 1518,
      "included": 1519,
      "enter": 1520,
      "situ": 1521,
      "expected": 1522,
      "karol": 1523,
      "couple": 1524,
      "leave": 1525,
      "pictures": 1526,
      "confir": 1527,
      "exceeded": 1528,
      "number": 1529,
      "security": 1530,
      "horrible": 1531,
      "neighborhood": 1532,
      "website": 1533,
      "cal": 1534,
      "cos": 1535,
      "cur": 1536,
      "due": 1537,
      "gym": 1538,
      "hom": 1539,
      "ive": 1540,
      "nat": 1541,
      "nlocation": 1542,
      "pu": 1543,
      "ren": 1544,
      "sar": 1545,
      "tem": 1546,
      "wi": 1547,
      "##ues": 1548,
      "##ive": 1549,
      "##ger": 1550,
      "##kes": 1551,
      "##mor": 1552,
      "##wise": 1553,
      "##fer": 1554,
      "##jay": 1555,
      "three": 1556,
      "##eable": 1557,
      "wasnt": 1558,
      "class": 1559,
      "##ecious": 1560,
      "although": 1561,
      "##enty": 1562,
      "comp": 1563,
      "process": 1564,
      "cha": 1565,
      "helpfull": 1566,
      "spend": 1567,
      "specious": 1568,
      "plenty": 1569,
      "##ching": 1570,
      "answ": 1571,
      "##aded": 1572,
      "she": 1573,
      "sheets": 1574,
      "reserv": 1575,
      "##roach": 1576,
      "##ppos": 1577,
      "maintenance": 1578,
      "bath": 1579,
      "##quipped": 1580,
      "expl": 1581,
      "##ized": 1582,
      "visited": 1583,
      "importa": 1584,
      "impress": 1585,
      "offer": 1586,
      "##ung": 1587,
      "accord": 1588,
      "someone": 1589,
      "##ably": 1590,
      "cold": 1591,
      "centre": 1592,
      "arrival": 1593,
      "arranged": 1594,
      "complain": 1595,
      "fabulous": 1596,
      "guys": 1597,
      "drin": 1598,
      "closed": 1599,
      "international": 1600,
      "luxury": 1601,
      "luxurious": 1602,
      "empl": 1603,
      "##medi": 1604,
      "shops": 1605,
      "noisy": 1606,
      "contact": 1607,
      "proximity": 1608,
      "choose": 1609,
      "important": 1610,
      "according": 1611,
      "100": 1612,
      "ajay": 1613,
      "bro": 1614,
      "cat": 1615,
      "drop": 1616,
      "emb": 1617,
      "ig": 1618,
      "lou": 1619,
      "mall": 1620,
      "mind": 1621,
      "now": 1622,
      "sin": 1623,
      "sil": 1624,
      "sear": 1625,
      "tu": 1626,
      "till": 1627,
      "##ra": 1628,
      "##pur": 1629,
      "##ah": 1630,
      "##ale": 1631,
      "##ket": 1632,
      "##ction": 1633,
      "##vel": 1634,
      "##ves": 1635,
      "##bo": 1636,
      "##her": 1637,
      "##hal": 1638,
      "think": 1639,
      "##inal": 1640,
      "##enti": 1641,
      "total": 1642,
      "into": 1643,
      "##anj": 1644,
      "##ularly": 1645,
      "##ety": 1646,
      "##thday": 1647,
      "##ured": 1648,
      "hair": 1649,
      "event": 1650,
      "revi": 1651,
      "deli": 1652,
      "sho": 1653,
      "##rooms": 1654,
      "manner": 1655,
      "taken": 1656,
      "anyone": 1657,
      "descri": 1658,
      "immedi": 1659,
      "managed": 1660,
      "otherwise": 1661,
      "betwe": 1662,
      "looks": 1663,
      "fair": 1664,
      "swim": 1665,
      "sweet": 1666,
      "##tively": 1667,
      "issues": 1668,
      "##actory": 1669,
      "appreciate": 1670,
      "internet": 1671,
      "heart": 1672,
      "purp": 1673,
      "information": 1674,
      "decorated": 1675,
      "birthday": 1676,
      "##augh": 1677,
      "return": 1678,
      "nicely": 1679,
      "##titude": 1680,
      "cosy": 1681,
      "renov": 1682,
      "review": 1683,
      "between": 1684,
      "20": 1685,
      "boy": 1686,
      "cant": 1687,
      "case": 1688,
      "esta": 1689,
      "face": 1690,
      "ho": 1691,
      "kep": 1692,
      "la": 1693,
      "mon": 1694,
      "nand": 1695,
      "oppos": 1696,
      "pill": 1697,
      "red": 1698,
      "rates": 1699,
      "send": 1700,
      "tou": 1701,
      "tree": 1702,
      "##und": 1703,
      "##rs": 1704,
      "##pm": 1705,
      "##ek": 1706,
      "##dle": 1707,
      "##gest": 1708,
      "##vious": 1709,
      "##ls": 1710,
      "##light": 1711,
      "##bility": 1712,
      "##hen": 1713,
      "##ward": 1714,
      "##fa": 1715,
      "##fic": 1716,
      "##15": 1717,
      "##erg": 1718,
      "##ead": 1719,
      "##eat": 1720,
      "##eness": 1721,
      "##ana": 1722,
      "##ator": 1723,
      "exch": 1724,
      "exact": 1725,
      "##iling": 1726,
      "asking": 1727,
      "comforta": 1728,
      "rece": 1729,
      "recent": 1730,
      "##vers": 1731,
      "real": 1732,
      "accept": 1733,
      "##ustle": 1734,
      "checking": 1735,
      "##pping": 1736,
      "priced": 1737,
      "##ody": 1738,
      "##tric": 1739,
      "visa": 1740,
      "showing": 1741,
      "prepared": 1742,
      "partic": 1743,
      "mins": 1744,
      "hosts": 1745,
      "personal": 1746,
      "look": 1747,
      "secure": 1748,
      "toilets": 1749,
      "##part": 1750,
      "247": 1751,
      "traveller": 1752,
      "travellers": 1753,
      "relatively": 1754,
      "possible": 1755,
      "minute": 1756,
      "address": 1757,
      "start": 1758,
      "standards": 1759,
      "except": 1760,
      "scam": 1761,
      "windows": 1762,
      "term": 1763,
      "middle": 1764,
      "improve": 1765,
      "delightful": 1766,
      "designed": 1767,
      "fix": 1768,
      "bedsheets": 1769,
      "phone": 1770,
      "type": 1771,
      "safety": 1772,
      "confirm": 1773,
      "calm": 1774,
      "broken": 1775,
      "since": 1776,
      "shopping": 1777,
      "swimming": 1778,
      "kept": 1779,
      "opposite": 1780,
      "pillow": 1781,
      "ap": 1782,
      "bel": 1783,
      "cord": 1784,
      "count": 1785,
      "cash": 1786,
      "fin": 1787,
      "fit": 1788,
      "fle": 1789,
      "fut": 1790,
      "gir": 1791,
      "gud": 1792,
      "gate": 1793,
      "ki": 1794,
      "ket": 1795,
      "less": 1796,
      "mil": 1797,
      "mos": 1798,
      "ng": 1799,
      "nal": 1800,
      "pm": 1801,
      "pow": 1802,
      "path": 1803,
      "sel": 1804,
      "sty": 1805,
      "tell": 1806,
      "ve": 1807,
      "##ub": 1808,
      "##uct": 1809,
      "##ps": 1810,
      "##pite": 1811,
      "##etic": 1812,
      "##ne": 1813,
      "##din": 1814,
      "##tely": 1815,
      "##low": 1816,
      "##body": 1817,
      "##30": 1818,
      "##tage": 1819,
      "##tim": 1820,
      "##estions": 1821,
      "##ited": 1822,
      "int": 1823,
      "alone": 1824,
      "##ended": 1825,
      "compared": 1826,
      "##thy": 1827,
      "##osh": 1828,
      "helping": 1829,
      "##ird": 1830,
      "attitude": 1831,
      "child": 1832,
      "ash": 1833,
      "speed": 1834,
      "tried": 1835,
      "sum": 1836,
      "thats": 1837,
      "noverall": 1838,
      "eng": 1839,
      "cont": 1840,
      "saw": 1841,
      "prices": 1842,
      "##thetic": 1843,
      "##ages": 1844,
      "##agar": 1845,
      "##ries": 1846,
      "willing": 1847,
      "cook": 1848,
      "##comfortable": 1849,
      "##arding": 1850,
      "upto": 1851,
      "disapp": 1852,
      "##unch": 1853,
      "availab": 1854,
      "pleasure": 1855,
      "appointed": 1856,
      "others": 1857,
      "accommodate": 1858,
      "feeling": 1859,
      "washrooms": 1860,
      "exceptionally": 1861,
      "commun": 1862,
      "thought": 1863,
      "travelling": 1864,
      "customers": 1865,
      "caring": 1866,
      "##blic": 1867,
      "posi": 1868,
      "entr": 1869,
      "addition": 1870,
      "##tivity": 1871,
      "member": 1872,
      "impec": 1873,
      "left": 1874,
      "level": 1875,
      "assist": 1876,
      "drive": 1877,
      "nrooms": 1878,
      "closer": 1879,
      "connec": 1880,
      "relaxing": 1881,
      "strong": 1882,
      "terr": 1883,
      "heav": 1884,
      "under": 1885,
      "completely": 1886,
      "satisfactory": 1887,
      "miss": 1888,
      "meals": 1889,
      "else": 1890,
      "wrong": 1891,
      "chef": 1892,
      "demand": 1893,
      "upgraded": 1894,
      "point": 1895,
      "public": 1896,
      "wife": 1897,
      "employ": 1898,
      "catch": 1899,
      "immediately": 1900,
      "purpose": 1901,
      "cordial": 1902,
      "flexi": 1903,
      "kettle": 1904,
      "11": 1905,
      "aes": 1906,
      "ban": 1907,
      "break": 1908,
      "dorm": 1909,
      "eff": 1910,
      "ear": 1911,
      "equipped": 1912,
      "furn": 1913,
      "god": 1914,
      "hrs": 1915,
      "jas": 1916,
      "ka": 1917,
      "kh": 1918,
      "mus": 1919,
      "nl": 1920,
      "nf": 1921,
      "n3": 1922,
      "nar": 1923,
      "none": 1924,
      "nclean": 1925,
      "ori": 1926,
      "ra": 1927,
      "rup": 1928,
      "sen": 1929,
      "sent": 1930,
      "sight": 1931,
      "tal": 1932,
      "vill": 1933,
      "wide": 1934,
      "wish": 1935,
      "year": 1936,
      "##pect": 1937,
      "##eign": 1938,
      "##iti": 1939,
      "##self": 1940,
      "##mi": 1941,
      "##man": 1942,
      "##count": 1943,
      "##la": 1944,
      "##br": 1945,
      "##10": 1946,
      "##ele": 1947,
      "##ced": 1948,
      "wash": 1949,
      "##edic": 1950,
      "foreign": 1951,
      "##ult": 1952,
      "##ular": 1953,
      "exist": 1954,
      "items": 1955,
      "##irs": 1956,
      "##acy": 1957,
      "##acks": 1958,
      "##ush": 1959,
      "spent": 1960,
      "tra": 1961,
      "sun": 1962,
      "life": 1963,
      "word": 1964,
      "world": 1965,
      "##ersta": 1966,
      "congest": 1967,
      "arch": 1968,
      "recommendations": 1969,
      "tax": 1970,
      "makes": 1971,
      "cool": 1972,
      "evening": 1973,
      "cancell": 1974,
      "##quit": 1975,
      "whenever": 1976,
      "kindness": 1977,
      "stor": 1978,
      "stunning": 1979,
      "previous": 1980,
      "unh": 1981,
      "direc": 1982,
      "approach": 1983,
      "giving": 1984,
      "court": 1985,
      "##ples": 1986,
      "paper": 1987,
      "markets": 1988,
      "respond": 1989,
      "mostly": 1990,
      "ground": 1991,
      "##ftop": 1992,
      "keeping": 1993,
      "##blish": 1994,
      "incredible": 1995,
      "nno": 1996,
      "specific": 1997,
      "nahi": 1998,
      "nbreakfast": 1999,
      "bring": 2000,
      "assis": 2001,
      "deny": 2002,
      "drink": 2003,
      "connaugh": 2004,
      "pickup": 2005,
      "spotless": 2006,
      "ensure": 2007,
      "soon": 2008,
      "satisfied": 2009,
      "suggest": 2010,
      "privacy": 2011,
      "difficult": 2012,
      "consider": 2013,
      "towels": 2014,
      "rooftop": 2015,
      "situated": 2016,
      "homely": 2017,
      "temple": 2018,
      "tuk": 2019,
      "mannered": 2020,
      "touch": 2021,
      "exchange": 2022,
      "exactly": 2023,
      "recently": 2024,
      "particularly": 2025,
      "future": 2026,
      "power": 2027,
      "pathetic": 2028,
      "positive": 2029,
      "impecc": 2030,
      "connectivity": 2031,
      "heavy": 2032,
      "aesthetic": 2033,
      "rupees": 2034,
      "congested": 2035,
      "connaught": 2036,
      "apart": 2037,
      "bill": 2038,
      "bloc": 2039,
      "ce": 2040,
      "cab": 2041,
      "da": 2042,
      "dust": 2043,
      "dist": 2044,
      "fre": 2045,
      "fav": 2046,
      "fun": 2047,
      "goo": 2048,
      "gor": 2049,
      "hon": 2050,
      "jo": 2051,
      "ja": 2052,
      "ji": 2053,
      "km": 2054,
      "last": 2055,
      "lunch": 2056,
      "niz": 2057,
      "nagar": 2058,
      "oc": 2059,
      "pass": 2060,
      "rent": 2061,
      "range": 2062,
      "shi": 2063,
      "tar": 2064,
      "turn": 2065,
      "wall": 2066,
      "wont": 2067,
      "wise": 2068,
      "##ug": 2069,
      "##uc": 2070,
      "##uit": 2071,
      "##ually": 2072,
      "##ren": 2073,
      "##res": 2074,
      "##row": 2075,
      "##og": 2076,
      "##over": 2077,
      "##pal": 2078,
      "##pro": 2079,
      "##aw": 2080,
      "##aar": 2081,
      "##ia": 2082,
      "##ian": 2083,
      "##ding": 2084,
      "##gant": 2085,
      "##sh": 2086,
      "##sel": 2087,
      "##ka": 2088,
      "##male": 2089,
      "##ctric": 2090,
      "##bed": 2091,
      "##hli": 2092,
      "those": 2093,
      "these": 2094,
      "##oup": 2095,
      "##esta": 2096,
      "##omet": 2097,
      "##anti": 2098,
      "##alf": 2099,
      "low": 2100,
      "clear": 2101,
      "forward": 2102,
      "##ared": 2103,
      "##ection": 2104,
      "pres": 2105,
      "prior": 2106,
      "exec": 2107,
      "##ervice": 2108,
      "atta": 2109,
      "chose": 2110,
      "week": 2111,
      "spa": 2112,
      "##owd": 2113,
      "##vered": 2114,
      "##verage": 2115,
      "trust": 2116,
      "true": 2117,
      "suite": 2118,
      "##geous": 2119,
      "sol": 2120,
      "memor": 2121,
      "##ourhood": 2122,
      "used": 2123,
      "dehli": 2124,
      "confortable": 2125,
      "overnight": 2126,
      "##ected": 2127,
      "##ager": 2128,
      "fact": 2129,
      "maj": 2130,
      "anywhere": 2131,
      "cannot": 2132,
      "newly": 2133,
      "##arkable": 2134,
      "kindly": 2135,
      "##sibility": 2136,
      "dish": 2137,
      "getting": 2138,
      "offers": 2139,
      "famil": 2140,
      "extended": 2141,
      "##fessional": 2142,
      "##ickets": 2143,
      "##ocity": 2144,
      "respect": 2145,
      "trains": 2146,
      "##ygienic": 2147,
      "arrive": 2148,
      "welcomed": 2149,
      "##tings": 2150,
      "conditioner": 2151,
      "conditioning": 2152,
      "grand": 2153,
      "tours": 2154,
      "says": 2155,
      "worthy": 2156,
      "key": 2157,
      "travelled": 2158,
      "slept": 2159,
      "transit": 2160,
      "transporta": 2161,
      "nnice": 2162,
      "knowled": 2163,
      "flights": 2164,
      "town": 2165,
      "choices": 2166,
      "trying": 2167,
      "problems": 2168,
      "centrally": 2169,
      "nthis": 2170,
      "1500": 2171,
      "##ather": 2172,
      "couples": 2173,
      "neighbourhood": 2174,
      "listed": 2175,
      "remarkable": 2176,
      "ensured": 2177,
      "streets": 2178,
      "owners": 2179,
      "ideal": 2180,
      "understa": 2181,
      "improved": 2182,
      "suggestions": 2183,
      "charges": 2184,
      "general": 2185,
      "electric": 2186,
      "advice": 2187,
      "surprised": 2188,
      "aerocity": 2189,
      "bazar": 2190,
      "bazaar": 2191,
      "crowd": 2192,
      "bott": 2193,
      "answer": 2194,
      "reservation": 2195,
      "explor": 2196,
      "impressive": 2197,
      "description": 2198,
      "establish": 2199,
      "recei": 2200,
      "pillows": 2201,
      "girls": 2202,
      "mosquit": 2203,
      "style": 2204,
      "##ucture": 2205,
      "availability": 2206,
      "entrance": 2207,
      "additional": 2208,
      "terrace": 2209,
      "traffic": 2210,
      "ceiling": 2211,
      "distur": 2212,
      "gorgeous": 2213,
      "honest": 2214,
      "nizam": 2215,
      "##professional": 2216,
      "transportation": 2217,
      "bhi": 2218,
      "bustle": 2219,
      "cer": 2220,
      "cut": 2221,
      "cam": 2222,
      "cup": 2223,
      "hence": 2224,
      "ir": 2225,
      "line": 2226,
      "linen": 2227,
      "mas": 2228,
      "mean": 2229,
      "mul": 2230,
      "mile": 2231,
      "mach": 2232,
      "nc": 2233,
      "oas": 2234,
      "pal": 2235,
      "pack": 2236,
      "rice": 2237,
      "ride": 2238,
      "rating": 2239,
      "running": 2240,
      "rather": 2241,
      "son": 2242,
      "sat": 2243,
      "treat": 2244,
      "tickets": 2245,
      "ur": 2246,
      "uber": 2247,
      "vin": 2248,
      "##uch": 2249,
      "##round": 2250,
      "##oid": 2251,
      "##ex": 2252,
      "##ati": 2253,
      "##ny": 2254,
      "##nel": 2255,
      "##ned": 2256,
      "##nge": 2257,
      "##ire": 2258,
      "##iable": 2259,
      "##ique": 2260,
      "##geable": 2261,
      "##ser": 2262,
      "##ker": 2263,
      "##my": 2264,
      "##cial": 2265,
      "##tun": 2266,
      "##les": 2267,
      "##lish": 2268,
      "##breakfast": 2269,
      "##bably": 2270,
      "##house": 2271,
      "##win": 2272,
      "##wor": 2273,
      "##fo": 2274,
      "##era": 2275,
      "third": 2276,
      "##ina": 2277,
      "##til": 2278,
      "##ene": 2279,
      "##ened": 2280,
      "##any": 2281,
      "client": 2282,
      "locations": 2283,
      "along": 2284,
      "##ilt": 2285,
      "##uty": 2286,
      "##ther": 2287,
      "having": 2288,
      "##irr": 2289,
      "##ither": 2290,
      "##ayed": 2291,
      "##icing": 2292,
      "##ication": 2293,
      "##icks": 2294,
      "probably": 2295,
      "ones": 2296,
      "why": 2297,
      "##iendly": 2298,
      "##used": 2299,
      "aspect": 2300,
      "behi": 2301,
      "spea": 2302,
      "neg": 2303,
      "##veral": 2304,
      "sub": 2305,
      "everyday": 2306,
      "everywhere": 2307,
      "accom": 2308,
      "que": 2309,
      "deep": 2310,
      "saket": 2311,
      "##uddin": 2312,
      "##ateful": 2313,
      "##rita": 2314,
      "taking": 2315,
      "##tress": 2316,
      "polit": 2317,
      "higher": 2318,
      "##ize": 2319,
      "stop": 2320,
      "cooperation": 2321,
      "prefer": 2322,
      "bigger": 2323,
      "unprofessional": 2324,
      "unique": 2325,
      "goes": 2326,
      "minim": 2327,
      "charming": 2328,
      "covid": 2329,
      "cock": 2330,
      "female": 2331,
      "vibe": 2332,
      "seem": 2333,
      "several": 2334,
      "require": 2335,
      "##000": 2336,
      "interac": 2337,
      "caf": 2338,
      "lotus": 2339,
      "trained": 2340,
      "requested": 2341,
      "dining": 2342,
      "views": 2343,
      "group": 2344,
      "grateful": 2345,
      "fully": 2346,
      "twice": 2347,
      "##assy": 2348,
      "24h": 2349,
      "surround": 2350,
      "various": 2351,
      "varie": 2352,
      "constr": 2353,
      "relaxed": 2354,
      "topnot": 2355,
      "accessibility": 2356,
      "interiors": 2357,
      "match": 2358,
      "mattress": 2359,
      "regarding": 2360,
      "picture": 2361,
      "midnight": 2362,
      "useful": 2363,
      "charging": 2364,
      "tourists": 2365,
      "glass": 2366,
      "##hram": 2367,
      "##friendly": 2368,
      "auto": 2369,
      "bottle": 2370,
      "bags": 2371,
      "colle": 2372,
      "marina": 2373,
      "serve": 2374,
      "##inental": 2375,
      "nature": 2376,
      "drinking": 2377,
      "drinks": 2378,
      "embassy": 2379,
      "igi": 2380,
      "lounge": 2381,
      "silent": 2382,
      "searching": 2383,
      "##ential": 2384,
      "renovation": 2385,
      "terminal": 2386,
      "confirmation": 2387,
      "apol": 2388,
      "ngreat": 2389,
      "##time": 2390,
      "interv": 2391,
      "summ": 2392,
      "disappointed": 2393,
      "flexible": 2394,
      "godwin": 2395,
      "music": 2396,
      "villa": 2397,
      "years": 2398,
      "cancelled": 2399,
      "unhygienic": 2400,
      "impeccable": 2401,
      "occ": 2402,
      "memorable": 2403,
      "knowledgeable": 2404,
      "exploring": 2405,
      "establishment": 2406,
      "mosquito": 2407,
      "nizamuddin": 2408,
      "multi": 2409,
      "oasis": 2410,
      "##tunately": 2411,
      "accomod": 2412,
      "varieties": 2413,
      "topnotch": 2414,
      "average": 2415,
      "bo": 2416,
      "brea": 2417,
      "bell": 2418,
      "bab": 2419,
      "bha": 2420,
      "creat": 2421,
      "cred": 2422,
      "cele": 2423,
      "du": 2424,
      "deal": 2425,
      "duty": 2426,
      "eur": 2427,
      "eating": 2428,
      "eager": 2429,
      "either": 2430,
      "fur": 2431,
      "fell": 2432,
      "four": 2433,
      "fol": 2434,
      "gey": 2435,
      "hes": 2436,
      "hop": 2437,
      "k3": 2438,
      "lad": 2439,
      "later": 2440,
      "land": 2441,
      "move": 2442,
      "nu": 2443,
      "np": 2444,
      "n4": 2445,
      "nac": 2446,
      "nrec": 2447,
      "norm": 2448,
      "nhotel": 2449,
      "om": 2450,
      "oper": 2451,
      "rat": 2452,
      "rud": 2453,
      "run": 2454,
      "ranj": 2455,
      "sy": 2456,
      "sou": 2457,
      "sad": 2458,
      "site": 2459,
      "somet": 2460,
      "test": 2461,
      "tip": 2462,
      "ver": 2463,
      "vac": 2464,
      "##uz": 2465,
      "##ution": 2466,
      "##ok": 2467,
      "##eous": 2468,
      "##equ": 2469,
      "##ext": 2470,
      "##ier": 2471,
      "##iew": 2472,
      "##gal": 2473,
      "##xcellent": 2474,
      "##cel": 2475,
      "##tel": 2476,
      "##tly": 2477,
      "##vice": 2478,
      "##you": 2479,
      "##bes": 2480,
      "##he": 2481,
      "##hat": 2482,
      "##50": 2483,
      "##ja": 2484,
      "##just": 2485,
      "##ero": 2486,
      "ther": 2487,
      "##oof": 2488,
      "##ooking": 2489,
      "##tation": 2490,
      "##eless": 2491,
      "##ini": 2492,
      "##inking": 2493,
      "staf": 2494,
      "waste": 2495,
      "##ors": 2496,
      "##tiven": 2497,
      "##ote": 2498,
      "##ings": 2499,
      "##ens": 2500,
      "##ency": 2501,
      "##ese": 2502,
      "##iting": 2503,
      "##omen": 2504,
      "##least": 2505,
      "##icen": 2506,
      "inst": 2507,
      "inhouse": 2508,
      "##ani": 2509,
      "##athroom": 2510,
      "##ision": 2511,
      "locate": 2512,
      "form": 2513,
      "##econd": 2514,
      "fruit": 2515,
      "cleanness": 2516,
      "press": 2517,
      "exam": 2518,
      "aloo": 2519,
      "ally": 2520,
      "alter": 2521,
      "often": 2522,
      "##ents": 2523,
      "##ented": 2524,
      "##fully": 2525,
      "##ilities": 2526,
      "##endable": 2527,
      "##elpful": 2528,
      "##ided": 2529,
      "hai": 2530,
      "atleast": 2531,
      "ons": 2532,
      "ashram": 2533,
      "nevery": 2534,
      "necess": 2535,
      "nexcellent": 2536,
      "allot": 2537,
      "##ained": 2538,
      "##owing": 2539,
      "##amb": 2540,
      "##amos": 2541,
      "suc": 2542,
      "suit": 2543,
      "action": 2544,
      "active": 2545,
      "live": 2546,
      "##hipal": 2547,
      "##ants": 2548,
      "sheet": 2549,
      "shamp": 2550,
      "energ": 2551,
      "encount": 2552,
      "conc": 2553,
      "##they": 2554,
      "abd": 2555,
      "taj": 2556,
      "behalf": 2557,
      "mahal": 2558,
      "mahipal": 2559,
      "cooling": 2560,
      "##ards": 2561,
      "guard": 2562,
      "avoid": 2563,
      "despite": 2564,
      "images": 2565,
      "superior": 2566,
      "managers": 2567,
      "premi": 2568,
      "somewhere": 2569,
      "somebody": 2570,
      "##tains": 2571,
      "##ummy": 2572,
      "ease": 2573,
      "unfor": 2574,
      "uncomfortable": 2575,
      "beautifully": 2576,
      "hass": 2577,
      "adequ": 2578,
      "built": 2579,
      "sized": 2580,
      "esc": 2581,
      "##ock": 2582,
      "conveniently": 2583,
      "##opean": 2584,
      "happened": 2585,
      "whats": 2586,
      "saying": 2587,
      "commendable": 2588,
      "##haw": 2589,
      "promised": 2590,
      "surely": 2591,
      "transfer": 2592,
      "position": 2593,
      "entry": 2594,
      "##apan": 2595,
      "hostels": 2596,
      "sitting": 2597,
      "nsp": 2598,
      "##gress": 2599,
      "promptly": 2600,
      "quickly": 2601,
      "nthank": 2602,
      "actual": 2603,
      "connected": 2604,
      "stress": 2605,
      "##ankaj": 2606,
      "listen": 2607,
      "##lier": 2608,
      "refund": 2609,
      "cards": 2610,
      "##anging": 2611,
      "generous": 2612,
      "private": 2613,
      "planned": 2614,
      "difficulties": 2615,
      "ended": 2616,
      "hardly": 2617,
      "surprise": 2618,
      "considering": 2619,
      "aero": 2620,
      "handy": 2621,
      "arrangements": 2622,
      "residential": 2623,
      "situation": 2624,
      "spending": 2625,
      "impressed": 2626,
      "1000": 2627,
      "loud": 2628,
      "delivered": 2629,
      "reviews": 2630,
      "boys": 2631,
      "month": 2632,
      "comfortably": 2633,
      "improvement": 2634,
      "below": 2635,
      "milk": 2636,
      "nalso": 2637,
      "veg": 2638,
      "children": 2639,
      "english": 2640,
      "communication": 2641,
      "employees": 2642,
      "effort": 2643,
      "earlier": 2644,
      "narrow": 2645,
      "assistance": 2646,
      "walls": 2647,
      "##selves": 2648,
      "attached": 2649,
      "dishes": 2650,
      "respectful": 2651,
      "understand": 2652,
      "crowded": 2653,
      "received": 2654,
      "disturb": 2655,
      "machine": 2656,
      "package": 2657,
      "##ickshaw": 2658,
      "requirements": 2659,
      "interview": 2660,
      "multiple": 2661,
      "bhai": 2662,
      "credit": 2663,
      "celebr": 2664,
      "european": 2665,
      "further": 2666,
      "follow": 2667,
      "geyser": 2668,
      "hesita": 2669,
      "nrecommend": 2670,
      "ranjana": 2671,
      "syst": 2672,
      "south": 2673,
      "something": 2674,
      "instead": 2675,
      "pressure": 2676,
      "altern": 2677,
      "shampoo": 2678,
      "energy": 2679,
      "encountered": 2680,
      "mahipalpur": 2681,
      "adequate": 2682,
      "1l": 2683,
      "16": 2684,
      "2nd": 2685,
      "3r": 2686,
      "700": 2687,
      "bb": 2688,
      "bou": 2689,
      "bes": 2690,
      "bol": 2691,
      "bung": 2692,
      "cir": 2693,
      "citi": 2694,
      "der": 2695,
      "dedic": 2696,
      "ed": 2697,
      "eater": 2698,
      "fool": 2699,
      "feat": 2700,
      "gent": 2701,
      "gst": 2702,
      "gard": 2703,
      "ganj": 2704,
      "hi": 2705,
      "hid": 2706,
      "hind": 2707,
      "hol": 2708,
      "heal": 2709,
      "hustle": 2710,
      "ill": 2711,
      "jam": 2712,
      "japan": 2713,
      "ko": 2714,
      "king": 2715,
      "kat": 2716,
      "kid": 2717,
      "kail": 2718,
      "licen": 2719,
      "mess": 2720,
      "might": 2721,
      "mag": 2722,
      "mater": 2723,
      "mirr": 2724,
      "nr": 2725,
      "nin": 2726,
      "nrea": 2727,
      "net": 2728,
      "nch": 2729,
      "nso": 2730,
      "nall": 2731,
      "nav": 2732,
      "ncomfortable": 2733,
      "ob": 2734,
      "opt": 2735,
      "pas": 2736,
      "pan": 2737,
      "post": 2738,
      "poc": 2739,
      "pamp": 2740,
      "pankaj": 2741,
      "rom": 2742,
      "rus": 2743,
      "round": 2744,
      "rickshaw": 2745,
      "sn": 2746,
      "sav": 2747,
      "sep": 2748,
      "sign": 2749,
      "sched": 2750,
      "slight": 2751,
      "wer": 2752,
      "wet": 2753,
      "ward": 2754,
      "yes": 2755,
      "yet": 2756,
      "yummy": 2757,
      "zero": 2758,
      "##uj": 2759,
      "##uous": 2760,
      "##utive": 2761,
      "##ructure": 2762,
      "##oj": 2763,
      "##ole": 2764,
      "##overall": 2765,
      "##pat": 2766,
      "##pre": 2767,
      "##pic": 2768,
      "##ptable": 2769,
      "##preet": 2770,
      "##eing": 2771,
      "##aid": 2772,
      "##ake": 2773,
      "##afe": 2774,
      "##no": 2775,
      "##ni": 2776,
      "##nice": 2777,
      "##ners": 2778,
      "##io": 2779,
      "##iant": 2780,
      "##gu": 2781,
      "##ga": 2782,
      "##gle": 2783,
      "##gage": 2784,
      "##ses": 2785,
      "##ky": 2786,
      "##kesh": 2787,
      "##main": 2788,
      "##mark": 2789,
      "##mine": 2790,
      "##mless": 2791,
      "##co": 2792,
      "##tt": 2793,
      "##tend": 2794,
      "##van": 2795,
      "##vator": 2796,
      "##was": 2797,
      "##far": 2798,
      "##zen": 2799,
      "##12": 2800,
      "tha": 2801,
      "##tar": 2802,
      "##taking": 2803,
      "##asy": 2804,
      "##elet": 2805,
      "##ceptable": 2806,
      "##tiya": 2807,
      "##enic": 2808,
      "##esy": 2809,
      "##estion": 2810,
      "##itect": 2811,
      "##iture": 2812,
      "##lequipped": 2813,
      "infr": 2814,
      "info": 2815,
      "##ane": 2816,
      "##anks": 2817,
      "##anna": 2818,
      "##alow": 2819,
      "lok": 2820,
      "##ature": 2821,
      "##atha": 2822,
      "##atform": 2823,
      "##ism": 2824,
      "##ising": 2825,
      "##ises": 2826,
      "##istic": 2827,
      "##isure": 2828,
      "forget": 2829,
      "##ective": 2830,
      "pricing": 2831,
      "##ether": 2832,
      "stays": 2833,
      "##ila": 2834,
      "##ilst": 2835,
      "##thtaking": 2836,
      "hauz": 2837,
      "##erves": 2838,
      "attend": 2839,
      "notch": 2840,
      "##astructure": 2841,
      "serving": 2842,
      "serves": 2843,
      "##icy": 2844,
      "chat": 2845,
      "chill": 2846,
      "chand": 2847,
      "chick": 2848,
      "foods": 2849,
      "whate": 2850,
      "whether": 2851,
      "whilst": 2852,
      "friendliness": 2853,
      "##ighly": 2854,
      "spo": 2855,
      "among": 2856,
      "amrita": 2857,
      "plans": 2858,
      "plug": 2859,
      "plants": 2860,
      "platform": 2861,
      "##aces": 2862,
      "delh": 2863,
      "myself": 2864,
      "supp": 2865,
      "suited": 2866,
      "anand": 2867,
      "activ": 2868,
      "soft": 2869,
      "social": 2870,
      "##ada": 2871,
      "##adi": 2872,
      "shah": 2873,
      "shared": 2874,
      "##ours": 2875,
      "nearest": 2876,
      "bedroom": 2877,
      "bedding": 2878,
      "##ills": 2879,
      "##illiant": 2880,
      "using": 2881,
      "usually": 2882,
      "##aza": 2883,
      "sab": 2884,
      "stations": 2885,
      "amazingly": 2886,
      "art": 2887,
      "timely": 2888,
      "##aging": 2889,
      "##ateg": 2890,
      "##please": 2891,
      "maintain": 2892,
      "takes": 2893,
      "taps": 2894,
      "provides": 2895,
      "valu": 2896,
      "##ought": 2897,
      "cooked": 2898,
      "highlight": 2899,
      "guid": 2900,
      "express": 2901,
      "deserves": 2902,
      "step": 2903,
      "##sion": 2904,
      "moreover": 2905,
      "showed": 2906,
      "gets": 2907,
      "offering": 2908,
      "prep": 2909,
      "##ume": 2910,
      "##umar": 2911,
      "uns": 2912,
      "unw": 2913,
      "unable": 2914,
      "until": 2915,
      "pleased": 2916,
      "adj": 2917,
      "covers": 2918,
      "via": 2919,
      "vibes": 2920,
      "wellequipped": 2921,
      "##seeing": 2922,
      "interest": 2923,
      "buy": 2924,
      "quieter": 2925,
      "smaller": 2926,
      "decently": 2927,
      "roam": 2928,
      "personnel": 2929,
      "##gether": 2930,
      "feels": 2931,
      "reachable": 2932,
      "relie": 2933,
      "##rect": 2934,
      "luck": 2935,
      "##ished": 2936,
      "firm": 2937,
      "nwhen": 2938,
      "everthing": 2939,
      "finding": 2940,
      "toiletries": 2941,
      "cheater": 2942,
      "cheated": 2943,
      "pleasantly": 2944,
      "difference": 2945,
      "responsible": 2946,
      "knew": 2947,
      "floors": 2948,
      "cared": 2949,
      "carry": 2950,
      "arranging": 2951,
      "restr": 2952,
      "switch": 2953,
      "nnot": 2954,
      "fabex": 2955,
      "least": 2956,
      "leisure": 2957,
      "1015": 2958,
      "1010": 2959,
      "decided": 2960,
      "nafter": 2961,
      "nbut": 2962,
      "##ashm": 2963,
      "nservice": 2964,
      "seeing": 2965,
      "nthere": 2966,
      "##ieve": 2967,
      "genu": 2968,
      "heard": 2969,
      "emp": 2970,
      "scary": 2971,
      "nhelpful": 2972,
      "regular": 2973,
      "refr": 2974,
      "refuse": 2975,
      "refused": 2976,
      "waited": 2977,
      "heat": 2978,
      "opened": 2979,
      "spots": 2980,
      "remote": 2981,
      "decoration": 2982,
      "doors": 2983,
      "lights": 2984,
      "lighting": 2985,
      "setting": 2986,
      "complem": 2987,
      "repu": 2988,
      "nmr": 2989,
      "nmy": 2990,
      "generator": 2991,
      "elegant": 2992,
      "blank": 2993,
      "corner": 2994,
      "glad": 2995,
      "seat": 2996,
      "seamless": 2997,
      "##hrs": 2998,
      "upgrade": 2999,
      "names": 3000,
      "invoice": 3001,
      "details": 3002,
      "organized": 3003,
      "bedsheet": 3004,
      "arrangement": 3005,
      "baggage": 3006,
      "colon": 3007,
      "points": 3008,
      "roof": 3009,
      "sounds": 3010,
      "natur": 3011,
      "sarfar": 3012,
      "##more": 3013,
      "chai": 3014,
      "chairs": 3015,
      "##roaches": 3016,
      "delivery": 3017,
      "described": 3018,
      "renovated": 3019,
      "202": 3020,
      "hold": 3021,
      "treebo": 3022,
      "reality": 3023,
      "finish": 3024,
      "fittings": 3025,
      "kiya": 3026,
      "select": 3027,
      "selection": 3028,
      "##30am": 3029,
      "continental": 3030,
      "missing": 3031,
      "demanded": 3032,
      "furnished": 3033,
      "jasmine": 3034,
      "oriented": 3035,
      "sense": 3036,
      "sightseeing": 3037,
      "talking": 3038,
      "foreigners": 3039,
      "architect": 3040,
      "previously": 3041,
      "directly": 3042,
      "courtesy": 3043,
      "responded": 3044,
      "specifically": 3045,
      "block": 3046,
      "daily": 3047,
      "favor": 3048,
      "function": 3049,
      "google": 3050,
      "job": 3051,
      "##antity": 3052,
      "present": 3053,
      "executive": 3054,
      "major": 3055,
      "families": 3056,
      "bottled": 3057,
      "honestly": 3058,
      "iron": 3059,
      "palace": 3060,
      "vinod": 3061,
      "clients": 3062,
      "behind": 3063,
      "speak": 3064,
      "negative": 3065,
      "deepak": 3066,
      "cockroaches": 3067,
      "seemed": 3068,
      "cafes": 3069,
      "breathtaking": 3070,
      "normal": 3071,
      "omelet": 3072,
      "rudely": 3073,
      "theres": 3074,
      "##tiveness": 3075,
      "onsite": 3076,
      "necessary": 3077,
      "success": 3078,
      "premium": 3079,
      "unfortunately": 3080,
      "whatsapp": 3081,
      "stressful": 3082,
      "disturbance": 3083,
      "alternative": 3084,
      "3rd": 3085,
      "bungalow": 3086,
      "circ": 3087,
      "eateries": 3088,
      "healthy": 3089,
      "japanese": 3090,
      "kailash": 3091,
      "mirror": 3092,
      "nreally": 3093,
      "pocket": 3094,
      "pamposh": 3095,
      "snacks": 3096,
      "slightly": 3097,
      "infrastructure": 3098,
      "chicken": 3099,
      "whatever": 3100,
      "activities": 3101,
      "fabexpress": 3102,
      "sarfaraz": 3103,
      "14": 3104,
      "13": 3105,
      "25": 3106,
      "30": 3107,
      "40": 3108,
      "ah": 3109,
      "af": 3110,
      "aur": 3111,
      "aap": 3112,
      "bi": 3113,
      "ben": 3114,
      "bang": 3115,
      "cu": 3116,
      "cast": 3117,
      "cig": 3118,
      "categ": 3119,
      "dw": 3120,
      "dom": 3121,
      "dest": 3122,
      "dry": 3123,
      "daugh": 3124,
      "fo": 3125,
      "fly": 3126,
      "fame": 3127,
      "fish": 3128,
      "ge": 3129,
      "ga": 3130,
      "gk": 3131,
      "gon": 3132,
      "gem": 3133,
      "greet": 3134,
      "gadi": 3135,
      "hy": 3136,
      "har": 3137,
      "hist": 3138,
      "hyg": 3139,
      "hung": 3140,
      "ital": 3141,
      "ju": 3142,
      "jun": 3143,
      "kuch": 3144,
      "kumar": 3145,
      "kashm": 3146,
      "ll": 3147,
      "lack": 3148,
      "laj": 3149,
      "lane": 3150,
      "ms": 3151,
      "mal": 3152,
      "mol": 3153,
      "mass": 3154,
      "n5": 3155,
      "nor": 3156,
      "nim": 3157,
      "nif": 3158,
      "nhot": 3159,
      "nto": 3160,
      "nfr": 3161,
      "nplease": 3162,
      "op": 3163,
      "pi": 3164,
      "pen": 3165,
      "pip": 3166,
      "pita": 3167,
      "rk": 3168,
      "rid": 3169,
      "rol": 3170,
      "rach": 3171,
      "si": 3172,
      "sal": 3173,
      "squ": 3174,
      "session": 3175,
      "sach": 3176,
      "ti": 3177,
      "tel": 3178,
      "tired": 3179,
      "ven": 3180,
      "vale": 3181,
      "west": 3182,
      "wear": 3183,
      "women": 3184,
      "wanna": 3185,
      "xa": 3186,
      "yog": 3187,
      "##uf": 3188,
      "##ule": 3189,
      "##ual": 3190,
      "##uven": 3191,
      "##uments": 3192,
      "##uction": 3193,
      "##ru": 3194,
      "##ring": 3195,
      "##ral": 3196,
      "##rid": 3197,
      "##right": 3198,
      "##oti": 3199,
      "##off": 3200,
      "##oking": 3201,
      "##ply": 3202,
      "##ptiv": 3203,
      "##ez": 3204,
      "##eks": 3205,
      "##aired": 3206,
      "##nif": 3207,
      "##iff": 3208,
      "##iar": 3209,
      "##iest": 3210,
      "##ione": 3211,
      "##de": 3212,
      "##ds": 3213,
      "##den": 3214,
      "##got": 3215,
      "##ges": 3216,
      "##gust": 3217,
      "##ginal": 3218,
      "##son": 3219,
      "##set": 3220,
      "##spe": 3221,
      "##service": 3222,
      "##km": 3223,
      "##kh": 3224,
      "##kfast": 3225,
      "##khar": 3226,
      "##min": 3227,
      "##cont": 3228,
      "##condition": 3229,
      "##vent": 3230,
      "##vision": 3231,
      "##lery": 3232,
      "##looking": 3233,
      "##boo": 3234,
      "##bas": 3235,
      "##bin": 3236,
      "##bers": 3237,
      "##bile": 3238,
      "##back": 3239,
      "##hit": 3240,
      "##how": 3241,
      "##hone": 3242,
      "##hav": 3243,
      "##wan": 3244,
      "##fied": 3245,
      "##zal": 3246,
      "##juven": 3247,
      "##20": 3248,
      "##62": 3249,
      "##erous": 3250,
      "##erally": 3251,
      "##eries": 3252,
      "thi": 3253,
      "thor": 3254,
      "thug": 3255,
      "##ndry": 3256,
      "##oon": 3257,
      "##ooked": 3258,
      "##ooja": 3259,
      "##take": 3260,
      "##tant": 3261,
      "##inks": 3262,
      "##eand": 3263,
      "##eated": 3264,
      "##ono": 3265,
      "##ots": 3266,
      "##ening": 3267,
      "tomb": 3268,
      "together": 3269,
      "##itor": 3270,
      "##itory": 3271,
      "##oma": 3272,
      "goods": 3273,
      "isk": 3274,
      "ist": 3275,
      "##ley": 3276,
      "##icent": 3277,
      "inr": 3278,
      "initi": 3279,
      "##anas": 3280,
      "##anth": 3281,
      "##antage": 3282,
      "##ala": 3283,
      "##ali": 3284,
      "lost": 3285,
      "##ato": 3286,
      "##ret": 3287,
      "##rend": 3288,
      "clea": 3289,
      "club": 3290,
      "##iss": 3291,
      "##ison": 3292,
      "##isit": 3293,
      "##ister": 3294,
      "##isite": 3295,
      "##ishing": 3296,
      "locked": 3297,
      "fort": 3298,
      "force": 3299,
      "forgot": 3300,
      "##ech": 3301,
      "cleaner": 3302,
      "cleanest": 3303,
      "prot": 3304,
      "proof": 3305,
      "exel": 3306,
      "exqu": 3307,
      "exisit": 3308,
      "alright": 3309,
      "alley": 3310,
      "##perature": 3311,
      "##ilar": 3312,
      "##uted": 3313,
      "##endra": 3314,
      "compar": 3315,
      "##ident": 3316,
      "##iday": 3317,
      "havent": 3318,
      "##acter": 3319,
      "##acilities": 3320,
      "progress": 3321,
      "chance": 3322,
      "chole": 3323,
      "evident": 3324,
      "weeks": 3325,
      "youre": 3326,
      "youll": 3327,
      "##uss": 3328,
      "spr": 3329,
      "spark": 3330,
      "repr": 3331,
      "rejuven": 3332,
      "neet": 3333,
      "plun": 3334,
      "plates": 3335,
      "##acement": 3336,
      "delayed": 3337,
      "##che": 3338,
      "##amazing": 3339,
      "##ienc": 3340,
      "trou": 3341,
      "everytime": 3342,
      "liv": 3343,
      "sofa": 3344,
      "qual": 3345,
      "quantity": 3346,
      "##add": 3347,
      "wellmain": 3348,
      "books": 3349,
      "shanti": 3350,
      "properties": 3351,
      "worry": 3352,
      "aircondition": 3353,
      "bedrooms": 3354,
      "##illed": 3355,
      "##roll": 3356,
      "##rogant": 3357,
      "deb": 3358,
      "depart": 3359,
      "concept": 3360,
      "##ola": 3361,
      "arrogant": 3362,
      "recom": 3363,
      "reccom": 3364,
      "bookings": 3365,
      "outd": 3366,
      "abh": 3367,
      "##ried": 3368,
      "##riate": 3369,
      "taker": 3370,
      "##oughly": 3371,
      "map": 3372,
      "maid": 3373,
      "##stuff": 3374,
      "##taurants": 3375,
      "smoking": 3376,
      "cancel": 3377,
      "agra": 3378,
      "##istent": 3379,
      "##ileged": 3380,
      "highway": 3381,
      "highspe": 3382,
      "guess": 3383,
      "guide": 3384,
      "against": 3385,
      "upon": 3386,
      "##izing": 3387,
      "stud": 3388,
      "stinking": 3389,
      "displ": 3390,
      "dispen": 3391,
      "distric": 3392,
      "discount": 3393,
      "disgust": 3394,
      "prem": 3395,
      "prefect": 3396,
      "prepar": 3397,
      "somehow": 3398,
      "famous": 3399,
      "##tainly": 3400,
      "party": 3401,
      "parks": 3402,
      "paratha": 3403,
      "paranth": 3404,
      "##ift": 3405,
      "flood": 3406,
      "flow": 3407,
      "unfa": 3408,
      "##star": 3409,
      "##stan": 3410,
      "##stant": 3411,
      "yourself": 3412,
      "gold": 3413,
      "neatly": 3414,
      "mini": 3415,
      "character": 3416,
      "appl": 3417,
      "appear": 3418,
      "approp": 3419,
      "##ptuous": 3420,
      "feed": 3421,
      "gives": 3422,
      "mukesh": 3423,
      "accommodated": 3424,
      "accommodations": 3425,
      "enjoying": 3426,
      "fans": 3427,
      "cake": 3428,
      "cafe": 3429,
      "captiv": 3430,
      "bukhar": 3431,
      "tasted": 3432,
      "attentiveness": 3433,
      "calls": 3434,
      "calling": 3435,
      "##taneous": 3436,
      "professionally": 3437,
      "persons": 3438,
      "personally": 3439,
      "##ocked": 3440,
      "training": 3441,
      "##ipur": 3442,
      "traveler": 3443,
      "traveling": 3444,
      "roads": 3445,
      "professionalism": 3446,
      "paying": 3447,
      "nwell": 3448,
      "nwifi": 3449,
      "literally": 3450,
      "mrp": 3451,
      "walkable": 3452,
      "themselves": 3453,
      "spaces": 3454,
      "conditions": 3455,
      "gra": 3456,
      "grt": 3457,
      "reasonably": 3458,
      "twin": 3459,
      "commut": 3460,
      "##ointing": 3461,
      "suraj": 3462,
      "simply": 3463,
      "similar": 3464,
      "absolute": 3465,
      "includes": 3466,
      "posh": 3467,
      "##tub": 3468,
      "##ape": 3469,
      "nnear": 3470,
      "nnext": 3471,
      "ndls": 3472,
      "started": 3473,
      "starting": 3474,
      "consistent": 3475,
      "knows": 3476,
      "knowing": 3477,
      "nbig": 3478,
      "nbathroom": 3479,
      "pics": 3480,
      "picked": 3481,
      "##upid": 3482,
      "expectation": 3483,
      "brand": 3484,
      "brilliant": 3485,
      "basis": 3486,
      "sites": 3487,
      "towards": 3488,
      "assign": 3489,
      "nsecond": 3490,
      "sleepy": 3491,
      "##aveen": 3492,
      "expecting": 3493,
      "nthanks": 3494,
      "closeness": 3495,
      "structure": 3496,
      "##ials": 3497,
      "tasteful": 3498,
      "email": 3499,
      "scared": 3500,
      "throughout": 3501,
      "nhe": 3502,
      "nhas": 3503,
      "nhighly": 3504,
      "listing": 3505,
      "nits": 3506,
      "regret": 3507,
      "register": 3508,
      "waiting": 3509,
      "head": 3510,
      "purch": 3511,
      "ensuring": 3512,
      "##aka": 3513,
      "complete": 3514,
      "reply": 3515,
      "repaired": 3516,
      "repeated": 3517,
      "mistake": 3518,
      "##aundry": 3519,
      "##value": 3520,
      "elevator": 3521,
      "maybe": 3522,
      "privileged": 3523,
      "difficulty": 3524,
      "corrid": 3525,
      "moved": 3526,
      "moving": 3527,
      "mobile": 3528,
      "seating": 3529,
      "noises": 3530,
      "advise": 3531,
      "advantage": 3532,
      "1200": 3533,
      "authen": 3534,
      "greenery": 3535,
      "named": 3536,
      "inviting": 3537,
      "organised": 3538,
      "marri": 3539,
      "serious": 3540,
      "serene": 3541,
      "typic": 3542,
      "inspite": 3543,
      "residency": 3544,
      "smelled": 3545,
      "confirmed": 3546,
      "curtains": 3547,
      "sarvice": 3548,
      "temperature": 3549,
      "company": 3550,
      "answered": 3551,
      "reservations": 3552,
      "bathtub": 3553,
      "explain": 3554,
      "complaint": 3555,
      "complained": 3556,
      "emplacement": 3557,
      "ign": 3558,
      "malls": 3559,
      "minded": 3560,
      "search": 3561,
      "##board": 3562,
      "events": 3563,
      "fairly": 3564,
      "faced": 3565,
      "hotal": 3566,
      "comfortabl": 3567,
      "accepted": 3568,
      "terms": 3569,
      "believe": 3570,
      "counter": 3571,
      "country": 3572,
      "finally": 3573,
      "ashu": 3574,
      "sumptuous": 3575,
      "disappointing": 3576,
      "chefs": 3577,
      "employee": 3578,
      "dorms": 3579,
      "furniture": 3580,
      "khas": 3581,
      "original": 3582,
      "sens": 3583,
      "words": 3584,
      "taxis": 3585,
      "store": 3586,
      "directions": 3587,
      "grounds": 3588,
      "bringing": 3589,
      "assistant": 3590,
      "denying": 3591,
      "consideration": 3592,
      "aesthetics": 3593,
      "aesthetically": 3594,
      "apartment": 3595,
      "blocked": 3596,
      "data": 3597,
      "jaipur": 3598,
      "kms": 3599,
      "shiv": 3600,
      "tariff": 3601,
      "##ucing": 3602,
      "##restaurants": 3603,
      "##shan": 3604,
      "##estaff": 3605,
      "weekend": 3606,
      "solve": 3607,
      "solution": 3608,
      "factor": 3609,
      "familiar": 3610,
      "bottles": 3611,
      "certainly": 3612,
      "cutlery": 3613,
      "cupboard": 3614,
      "masala": 3615,
      "means": 3616,
      "saty": 3617,
      "subway": 3618,
      "politeness": 3619,
      "minimal": 3620,
      "minimum": 3621,
      "interaction": 3622,
      "interacted": 3623,
      "surrounding": 3624,
      "construction": 3625,
      "mattresses": 3626,
      "collection": 3627,
      "apollo": 3628,
      "summer": 3629,
      "accomodation": 3630,
      "accomodating": 3631,
      "baby": 3632,
      "fellow": 3633,
      "hope": 3634,
      "nuke": 3635,
      "rats": 3636,
      "tips": 3637,
      "example": 3638,
      "neverything": 3639,
      "abdul": 3640,
      "hassle": 3641,
      "months": 3642,
      "celebrated": 3643,
      "hesitation": 3644,
      "system": 3645,
      "beside": 3646,
      "citizen": 3647,
      "dedicated": 3648,
      "gentle": 3649,
      "garden": 3650,
      "hidden": 3651,
      "katra": 3652,
      "kids": 3653,
      "license": 3654,
      "magnif": 3655,
      "pasta": 3656,
      "russi": 3657,
      "separ": 3658,
      "signal": 3659,
      "schedule": 3660,
      "wardro": 3661,
      "##market": 3662,
      "delhis": 3663,
      "supply": 3664,
      "lucky": 3665,
      "restric": 3666,
      "refresh": 3667,
      "complementary": 3668,
      "reputation": 3669,
      "blanket": 3670,
      "natural": 3671,
      "architecture": 3672,
      "favorite": 3673,
      "functional": 3674,
      "omelette": 3675,
      "ahead": 3676,
      "afzal": 3677,
      "castle": 3678,
      "cigare": 3679,
      "category": 3680,
      "daughter": 3681,
      "fox": 3682,
      "gonna": 3683,
      "greeted": 3684,
      "hungry": 3685,
      "italian": 3686,
      "juice": 3687,
      "llam": 3688,
      "lajpat": 3689,
      "malvi": 3690,
      "molto": 3691,
      "penny": 3692,
      "pitam": 3693,
      "roll": 3694,
      "rachna": 3695,
      "venue": 3696,
      "valet": 3697,
      "western": 3698,
      "xa0": 3699,
      "thoroughly": 3700,
      "initially": 3701,
      "exquisite": 3702,
      "sparkling": 3703,
      "repres": 3704,
      "plunge": 3705,
      "wellmaintained": 3706,
      "highspeed": 3707,
      "district": 3708,
      "disgusting": 3709,
      "unfair": 3710,
      "appropriate": 3711,
      "captivating": 3712,
      "bukhara": 3713,
      "registered": 3714,
      "authentic": 3715,
      "typical": 3716,
      "magnificent": 3717,
      "05": 3718,
      "09": 3719,
      "1st": 3720,
      "21": 3721,
      "27": 3722,
      "26": 3723,
      "2am": 3724,
      "200": 3725,
      "2000": 3726,
      "2km": 3727,
      "34": 3728,
      "300": 3729,
      "45": 3730,
      "500": 3731,
      "64": 3732,
      "6am": 3733,
      "6pm": 3734,
      "615": 3735,
      "800": 3736,
      "94": 3737,
      "900": 3738,
      "az": 3739,
      "auch": 3740,
      "auf": 3741,
      "bh": 3742,
      "boom": 3743,
      "bust": 3744,
      "bank": 3745,
      "bunch": 3746,
      "bene": 3747,
      "bought": 3748,
      "cp": 3749,
      "ci": 3750,
      "c9": 3751,
      "cle": 3752,
      "crea": 3753,
      "cous": 3754,
      "cater": 3755,
      "cine": 3756,
      "cult": 3757,
      "dos": 3758,
      "dow": 3759,
      "dark": 3760,
      "dang": 3761,
      "dhal": 3762,
      "ec": 3763,
      "equ": 3764,
      "f9": 3765,
      "foo": 3766,
      "fil": 3767,
      "fail": 3768,
      "foc": 3769,
      "fuss": 3770,
      "gm": 3771,
      "gar": 3772,
      "gul": 3773,
      "gur": 3774,
      "gated": 3775,
      "gand": 3776,
      "gha": 3777,
      "gali": 3778,
      "hit": 3779,
      "hal": 3780,
      "hell": 3781,
      "hus": 3782,
      "hall": 3783,
      "half": 3784,
      "htel": 3785,
      "ii": 3786,
      "jw": 3787,
      "jat": 3788,
      "jus": 3789,
      "jour": 3790,
      "joy": 3791,
      "join": 3792,
      "july": 3793,
      "kab": 3794,
      "kah": 3795,
      "lin": 3796,
      "len": 3797,
      "lle": 3798,
      "lim": 3799,
      "laz": 3800,
      "lag": 3801,
      "lem": 3802,
      "lang": 3803,
      "lacks": 3804,
      "lga": 3805,
      "laundry": 3806,
      "mi": 3807,
      "mic": 3808,
      "mould": 3809,
      "medic": 3810,
      "mtt": 3811,
      "nt": 3812,
      "n6": 3813,
      "nan": 3814,
      "nos": 3815,
      "nhi": 3816,
      "nour": 3817,
      "nill": 3818,
      "ncom": 3819,
      "npar": 3820,
      "nloc": 3821,
      "nfriendly": 3822,
      "nyou": 3823,
      "njust": 3824,
      "ou": 3825,
      "obl": 3826,
      "ola": 3827,
      "po": 3828,
      "pv": 3829,
      "pin": 3830,
      "por": 3831,
      "pul": 3832,
      "pac": 3833,
      "pain": 3834,
      "pun": 3835,
      "pear": 3836,
      "pand": 3837,
      "pie": 3838,
      "pagar": 3839,
      "qut": 3840,
      "ris": 3841,
      "rar": 3842,
      "rac": 3843,
      "rain": 3844,
      "rough": 3845,
      "roy": 3846,
      "raj": 3847,
      "rak": 3848,
      "rare": 3849,
      "rosh": 3850,
      "rush": 3851,
      "sk": 3852,
      "sor": 3853,
      "san": 3854,
      "sus": 3855,
      "sick": 3856,
      "stra": 3857,
      "sym": 3858,
      "sque": 3859,
      "te": 3860,
      "t3": 3861,
      "tin": 3862,
      "tut": 3863,
      "tall": 3864,
      "tone": 3865,
      "tele": 3866,
      "text": 3867,
      "tila": 3868,
      "uk": 3869,
      "um": 3870,
      "uday": 3871,
      "util": 3872,
      "wo": 3873,
      "wea": 3874,
      "wood": 3875,
      "wat": 3876,
      "wow": 3877,
      "wif": 3878,
      "wok": 3879,
      "ya": 3880,
      "yest": 3881,
      "yam": 3882,
      "zim": 3883,
      "zun": 3884,
      "zaza": 3885,
      "##uy": 3886,
      "##uce": 3887,
      "##uge": 3888,
      "##upi": 3889,
      "##uage": 3890,
      "##uced": 3891,
      "##ran": 3892,
      "##ram": 3893,
      "##rass": 3894,
      "##rdin": 3895,
      "##oe": 3896,
      "##oing": 3897,
      "##old": 3898,
      "##pos": 3899,
      "##pay": 3900,
      "##pack": 3901,
      "##path": 3902,
      "##eper": 3903,
      "##eem": 3904,
      "##every": 3905,
      "##easy": 3906,
      "##aul": 3907,
      "##aim": 3908,
      "##atis": 3909,
      "##nu": 3910,
      "##ng": 3911,
      "##nce": 3912,
      "##nal": 3913,
      "##near": 3914,
      "##ney": 3915,
      "##ncy": 3916,
      "##iy": 3917,
      "##ib": 3918,
      "##ias": 3919,
      "##itable": 3920,
      "##iod": 3921,
      "##dr": 3922,
      "##del": 3923,
      "##dar": 3924,
      "##dry": 3925,
      "##gi": 3926,
      "##gs": 3927,
      "##gy": 3928,
      "##gely": 3929,
      "##gamos": 3930,
      "##sc": 3931,
      "##ster": 3932,
      "##some": 3933,
      "##sew": 3934,
      "##second": 3935,
      "##ko": 3936,
      "##kn": 3937,
      "##kit": 3938,
      "##kar": 3939,
      "##kers": 3940,
      "##kash": 3941,
      "##ma": 3942,
      "##mer": 3943,
      "##mac": 3944,
      "##mers": 3945,
      "##made": 3946,
      "##xx": 3947,
      "##x7": 3948,
      "##cour": 3949,
      "##cked": 3950,
      "##cks": 3951,
      "##cted": 3952,
      "##cake": 3953,
      "##tery": 3954,
      "##tom": 3955,
      "##tling": 3956,
      "##vior": 3957,
      "##vamp": 3958,
      "##list": 3959,
      "##lead": 3960,
      "##ye": 3961,
      "##ying": 3962,
      "##ba": 3963,
      "##bt": 3964,
      "##bel": 3965,
      "##bing": 3966,
      "##but": 3967,
      "##bad": 3968,
      "##band": 3969,
      "##bathroom": 3970,
      "##hel": 3971,
      "##hom": 3972,
      "##hol": 3973,
      "##hesh": 3974,
      "##hey": 3975,
      "##hours": 3976,
      "##wal": 3977,
      "##when": 3978,
      "##fl": 3979,
      "##fit": 3980,
      "##free": 3981,
      "##fact": 3982,
      "##factory": 3983,
      "##zo": 3984,
      "##zi": 3985,
      "##4h": 3986,
      "##jun": 3987,
      "##jeet": 3988,
      "##jhe": 3989,
      "##28": 3990,
      "##eral": 3991,
      "##erate": 3992,
      "##erday": 3993,
      "##erpreet": 3994,
      "tho": 3995,
      "thn": 3996,
      "thin": 3997,
      "threat": 3998,
      "thum": 3999,
      "thinking": 4000,
      "##ndly": 4001,
      "##taf": 4002,
      "##taff": 4003,
      "##tabl": 4004,
      "##taker": 4005,
      "##ased": 4006,
      "##asome": 4007,
      "##asily": 4008,
      "##assi": 4009,
      "##asures": 4010,
      "##els": 4011,
      "##elly": 4012,
      "##elicious": 4013,
      "##int": 4014,
      "##inely": 4015,
      "##inue": 4016,
      "##inations": 4017,
      "##ones": 4018,
      "##ontaneous": 4019,
      "stain": 4020,
      "state": 4021,
      "stall": 4022,
      "stairs": 4023,
      "##orant": 4024,
      "##orate": 4025,
      "##orst": 4026,
      "##orrect": 4027,
      "##tio": 4028,
      "##tiest": 4029,
      "##tique": 4030,
      "##ticed": 4031,
      "##otel": 4032,
      "##ena": 4033,
      "##ention": 4034,
      "##enity": 4035,
      "##ffar": 4036,
      "##oul": 4037,
      "##esp": 4038,
      "tom": 4039,
      "toh": 4040,
      "toast": 4041,
      "today": 4042,
      "##itten": 4043,
      "goodstaff": 4044,
      "goodbreakfast": 4045,
      "stafff": 4046,
      "stafffood": 4047,
      "roomy": 4048,
      "inj": 4049,
      "instant": 4050,
      "##annel": 4051,
      "lod": 4052,
      "lol": 4053,
      "load": 4054,
      "##rees": 4055,
      "##reception": 4056,
      "clin": 4057,
      "clus": 4058,
      "cloth": 4059,
      "clock": 4060,
      "##isa": 4061,
      "##isine": 4062,
      "##isla": 4063,
      "locati": 4064,
      "fortunately": 4065,
      "##aring": 4066,
      "##arter": 4067,
      "##arily": 4068,
      "##arged": 4069,
      "##arrass": 4070,
      "##eanor": 4071,
      "##eck": 4072,
      "##ecom": 4073,
      "##ecooked": 4074,
      "fry": 4075,
      "fried": 4076,
      "cleanstaff": 4077,
      "cleanfood": 4078,
      "##ulent": 4079,
      "##ulate": 4080,
      "##ults": 4081,
      "##ultation": 4082,
      "prin": 4083,
      "prac": 4084,
      "praw": 4085,
      "prize": 4086,
      "exc": 4087,
      "exha": 4088,
      "exll": 4089,
      "excel": 4090,
      "##ete": 4091,
      "##eted": 4092,
      "##etent": 4093,
      "stayth": 4094,
      "stayall": 4095,
      "stayboo": 4096,
      "ali": 4097,
      "##veen": 4098,
      "##veill": 4099,
      "##perative": 4100,
      "##iles": 4101,
      "##ilent": 4102,
      "##uttle": 4103,
      "##uttiya": 4104,
      "comment": 4105,
      "combo": 4106,
      "##thus": 4107,
      "##thank": 4108,
      "##theless": 4109,
      "##osen": 4110,
      "##oses": 4111,
      "##ura": 4112,
      "##uri": 4113,
      "##urt": 4114,
      "##urate": 4115,
      "##urning": 4116,
      "##ellent": 4117,
      "##ida": 4118,
      "hain": 4119,
      "##ires": 4120,
      "##irst": 4121,
      "note": 4122,
      "notes": 4123,
      "##ayun": 4124,
      "##aste": 4125,
      "servic": 4126,
      "##ics": 4127,
      "##ict": 4128,
      "##icable": 4129,
      "##acin": 4130,
      "prod": 4131,
      "proced": 4132,
      "provision": 4133,
      "chr": 4134,
      "chain": 4135,
      "chang": 4136,
      "channel": 4137,
      "chuttiya": 4138,
      "chosen": 4139,
      "##fort": 4140,
      "onward": 4141,
      "white": 4142,
      "roomshal": 4143,
      "helpfully": 4144,
      "helpfulness": 4145,
      "greater": 4146,
      "greatly": 4147,
      "youd": 4148,
      "##uses": 4149,
      "##ustable": 4150,
      "##usion": 4151,
      "aster": 4152,
      "asks": 4153,
      "beverage": 4154,
      "spac": 4155,
      "sport": 4156,
      "spicy": 4157,
      "spontaneous": 4158,
      "revamp": 4159,
      "friendlyfood": 4160,
      "breakfasts": 4161,
      "neasy": 4162,
      "amit": 4163,
      "##itya": 4164,
      "pls": 4165,
      "plum": 4166,
      "plenti": 4167,
      "plaza": 4168,
      "delay": 4169,
      "delist": 4170,
      "##keep": 4171,
      "##kept": 4172,
      "##aint": 4173,
      "##tyard": 4174,
      "##vertis": 4175,
      "read": 4176,
      "##ament": 4177,
      "##ntown": 4178,
      "##iency": 4179,
      "tri": 4180,
      "traces": 4181,
      "##imos": 4182,
      "suffic": 4183,
      "subs": 4184,
      "suppos": 4185,
      "suitable": 4186,
      "antic": 4187,
      "anuj": 4188,
      "anni": 4189,
      "ankit": 4190,
      "##porative": 4191,
      "##getic": 4192,
      "act": 4193,
      "acceptable": 4194,
      "lik": 4195,
      "lied": 4196,
      "liking": 4197,
      "liqu": 4198,
      "sock": 4199,
      "therefore": 4200,
      "##hig": 4201,
      "##hile": 4202,
      "questions": 4203,
      "question": 4204,
      "queries": 4205,
      "quarter": 4206,
      "quaint": 4207,
      "##ades": 4208,
      "##adise": 4209,
      "nobody": 4210,
      "noticed": 4211,
      "noida": 4212,
      "##anted": 4213,
      "measures": 4214,
      "welltr": 4215,
      "wellapp": 4216,
      "wellkept": 4217,
      "shw": 4218,
      "shor": 4219,
      "shab": 4220,
      "sharm": 4221,
      "share": 4222,
      "shocked": 4223,
      "##iences": 4224,
      "nearer": 4225,
      "nearly": 4226,
      "worries": 4227,
      "excellentstaff": 4228,
      "##portun": 4229,
      "aircon": 4230,
      "##usted": 4231,
      "##ustry": 4232,
      "##azil": 4233,
      "resol": 4234,
      "resort": 4235,
      "##rol": 4236,
      "ourselves": 4237,
      "experienced": 4238,
      "experiences": 4239,
      "dep": 4240,
      "dece": 4241,
      "enab": 4242,
      "encl": 4243,
      "enthus": 4244,
      "mane": 4245,
      "manor": 4246,
      "manners": 4247,
      "##olen": 4248,
      "##olated": 4249,
      "##ppy": 4250,
      "overb": 4251,
      "overw": 4252,
      "overlooking": 4253,
      "sag": 4254,
      "pricey": 4255,
      "arjun": 4256,
      "reci": 4257,
      "recall": 4258,
      "timing": 4259,
      "outer": 4260,
      "abund": 4261,
      "##rif": 4262,
      "##riger": 4263,
      "##outeous": 4264,
      "receptionlo": 4265,
      "maine": 4266,
      "mainly": 4267,
      "recommending": 4268,
      "recommendable": 4269,
      "tap": 4270,
      "tata": 4271,
      "facing": 4272,
      "tooo": 4273,
      "bathing": 4274,
      "battery": 4275,
      "perform": 4276,
      "period": 4277,
      "##iging": 4278,
      "##igate": 4279,
      "behave": 4280,
      "closeby": 4281,
      "maple": 4282,
      "mahr": 4283,
      "maps": 4284,
      "mahesh": 4285,
      "cooking": 4286,
      "coordin": 4287,
      "##tall": 4288,
      "anyway": 4289,
      "anymore": 4290,
      "smiling": 4291,
      "smelly": 4292,
      "smiles": 4293,
      "agree": 4294,
      "aggress": 4295,
      "##coming": 4296,
      "police": 4297,
      "policy": 4298,
      "##pital": 4299,
      "##ephone": 4300,
      "news": 4301,
      "kinda": 4302,
      "##lined": 4303,
      "upset": 4304,
      "upmarket": 4305,
      "##tically": 4306,
      "aval": 4307,
      "deser": 4308,
      "descent": 4309,
      "##izione": 4310,
      "stink": 4311,
      "story": 4312,
      "stinks": 4313,
      "stroll": 4314,
      "stupid": 4315,
      "sttaf": 4316,
      "stones": 4317,
      "stolen": 4318,
      "visitors": 4319,
      "disc": 4320,
      "impr": 4321,
      "##venient": 4322,
      "showers": 4323,
      "walked": 4324,
      "cooperating": 4325,
      "account": 4326,
      "accurate": 4327,
      "##abile": 4328,
      "##ability": 4329,
      "##aborate": 4330,
      "biggest": 4331,
      "parents": 4332,
      "paradise": 4333,
      "##umstan": 4334,
      "##utiya": 4335,
      "##ions": 4336,
      "flav": 4337,
      "flush": 4338,
      "flaw": 4339,
      "una": 4340,
      "unit": 4341,
      "unclean": 4342,
      "unne": 4343,
      "unex": 4344,
      "unhig": 4345,
      "##stay": 4346,
      "##station": 4347,
      "##stairs": 4348,
      "die": 4349,
      "diya": 4350,
      "beautifull": 4351,
      "hasta": 4352,
      "pleasing": 4353,
      "doc": 4354,
      "doing": 4355,
      "neatness": 4356,
      "adm": 4357,
      "adult": 4358,
      "advertis": 4359,
      "mine": 4360,
      "minar": 4361,
      "mineral": 4362,
      "charm": 4363,
      "apple": 4364,
      "##pted": 4365,
      "extend": 4366,
      "covered": 4367,
      "vihar": 4368,
      "vivan": 4369,
      "mujhe": 4370,
      "sehr": 4371,
      "seems": 4372,
      "##ander": 4373,
      "##anded": 4374,
      "accommodative": 4375,
      "wonderfully": 4376,
      "indeed": 4377,
      "inderpreet": 4378,
      "industry": 4379,
      "fancy": 4380,
      "intercom": 4381,
      "interru": 4382,
      "intercont": 4383,
      "cause": 4384,
      "buck": 4385,
      "tastes": 4386,
      "course": 4387,
      "courtyard": 4388,
      "smallest": 4389,
      "aware": 4390,
      "awasome": 4391,
      "dirt": 4392,
      "dirtiest": 4393,
      "rohit": 4394,
      "##place": 4395,
      "extreme": 4396,
      "sizeable": 4397,
      "ower": 4398,
      "professionel": 4399,
      "personel": 4400,
      "ambienc": 4401,
      "busiest": 4402,
      "homemade": 4403,
      "##ember": 4404,
      "trainstation": 4405,
      "backpack": 4406,
      "niv": 4407,
      "reaching": 4408,
      "thankful": 4409,
      "thankyou": 4410,
      "travels": 4411,
      "payments": 4412,
      "relation": 4413,
      "reliable": 4414,
      "##price": 4415,
      "##proof": 4416,
      "##praveen": 4417,
      "##rected": 4418,
      "happiness": 4419,
      "whereas": 4420,
      "wherever": 4421,
      "##ishek": 4422,
      "nwith": 4423,
      "nwill": 4424,
      "nwould": 4425,
      "nworst": 4426,
      "dined": 4427,
      "mrs": 4428,
      "mrt": 4429,
      "caretaker": 4430,
      "kitchens": 4431,
      "cheat": 4432,
      "cheaper": 4433,
      "cheating": 4434,
      "cheats": 4435,
      "conditioned": 4436,
      "gracious": 4437,
      "grade": 4438,
      "touris": 4439,
      "reasons": 4440,
      "firstly": 4441,
      "ways": 4442,
      "24hrs": 4443,
      "24x7": 4444,
      "##have": 4445,
      "##happy": 4446,
      "orders": 4447,
      "responses": 4448,
      "workers": 4449,
      "carte": 4450,
      "carried": 4451,
      "older": 4452,
      "##bleness": 4453,
      "fault": 4454,
      "posizione": 4455,
      "##tuk": 4456,
      "##tuks": 4457,
      "standout": 4458,
      "trips": 4459,
      "entered": 4460,
      "entering": 4461,
      "added": 4462,
      "adding": 4463,
      "nneat": 4464,
      "##tives": 4465,
      "comforts": 4466,
      "fabhotel": 4467,
      "nde": 4468,
      "ndelicious": 4469,
      "wale": 4470,
      "wake": 4471,
      "waist": 4472,
      "waha": 4473,
      "##tish": 4474,
      "consum": 4475,
      "consultation": 4476,
      "declined": 4477,
      "nbe": 4478,
      "nbest": 4479,
      "##upying": 4480,
      "brak": 4481,
      "brought": 4482,
      "brazil": 4483,
      "based": 4484,
      "human": 4485,
      "humayun": 4486,
      "humbleness": 4487,
      "model": 4488,
      "moderate": 4489,
      "asset": 4490,
      "assume": 4491,
      "receptionists": 4492,
      "appreciable": 4493,
      "nsh": 4494,
      "nstr": 4495,
      "nsafe": 4496,
      "##graded": 4497,
      "throw": 4498,
      "localiz": 4499,
      "seeking": 4500,
      "bak": 4501,
      "bata": 4502,
      "bahi": 4503,
      "baad": 4504,
      "baisla": 4505,
      "draw": 4506,
      "partner": 4507,
      "efficiency": 4508,
      "nthen": 4509,
      "nthird": 4510,
      "connect": 4511,
      "doesnot": 4512,
      "relaxation": 4513,
      "balance": 4514,
      "bothered": 4515,
      "karne": 4516,
      "tastefully": 4517,
      "emerg": 4518,
      "screen": 4519,
      "##anka": 4520,
      "leaking": 4521,
      "leafy": 4522,
      "leaving": 4523,
      "matter": 4524,
      "matched": 4525,
      "matching": 4526,
      "nhis": 4527,
      "nhad": 4528,
      "terrible": 4529,
      "##yoti": 4530,
      "paidlocation": 4531,
      "costs": 4532,
      "costly": 4533,
      "photo": 4534,
      "##viour": 4535,
      "##lessly": 4536,
      "regularly": 4537,
      "regards": 4538,
      "refriger": 4539,
      "##tractions": 4540,
      "ordering": 4541,
      "waiter": 4542,
      "waiters": 4543,
      "eaten": 4544,
      "heater": 4545,
      "opening": 4546,
      "puri": 4547,
      "##aja": 4548,
      "informed": 4549,
      "remain": 4550,
      "remove": 4551,
      "remember": 4552,
      "confusion": 4553,
      "##cleanliness": 4554,
      "idli": 4555,
      "sooo": 4556,
      "repeat": 4557,
      "birds": 4558,
      "doubt": 4559,
      "downstairs": 4560,
      "downgraded": 4561,
      "misbe": 4562,
      "mislead": 4563,
      "##aug": 4564,
      "fraudulent": 4565,
      "suggestion": 4566,
      "stuffs": 4567,
      "chargeable": 4568,
      "moments": 4569,
      "nonly": 4570,
      "##tails": 4571,
      "plane": 4572,
      "planning": 4573,
      "supporting": 4574,
      "drivers": 4575,
      "exceeding": 4576,
      "blue": 4577,
      "blown": 4578,
      "correct": 4579,
      "corporative": 4580,
      "corrected": 4581,
      "elsew": 4582,
      "five": 4583,
      "glowing": 4584,
      "moh": 4585,
      "n24h": 4586,
      "write": 4587,
      "wrost": 4588,
      "demeanor": 4589,
      "advance": 4590,
      "secured": 4591,
      "surprising": 4592,
      "considered": 4593,
      "12pm": 4594,
      "aera": 4595,
      "autor": 4596,
      "automa": 4597,
      "namely": 4598,
      "namenities": 4599,
      "returning": 4600,
      "##itar": 4601,
      "##itage": 4602,
      "invol": 4603,
      "organise": 4604,
      "organizing": 4605,
      "bars": 4606,
      "barely": 4607,
      "coll": 4608,
      "marks": 4609,
      "soundproof": 4610,
      "insist": 4611,
      "install": 4612,
      "meeting": 4613,
      "residence": 4614,
      "smelling": 4615,
      "curry": 4616,
      "curren": 4617,
      "homesta": 4618,
      "homecooked": 4619,
      "saroj": 4620,
      "compact": 4621,
      "compare": 4622,
      "competent": 4623,
      "chaos": 4624,
      "answering": 4625,
      "##unga": 4626,
      "complains": 4627,
      "complaints": 4628,
      "dropoff": 4629,
      "embarrass": 4630,
      "silance": 4631,
      "silence": 4632,
      "searched": 4633,
      "##pura": 4634,
      "hairs": 4635,
      "eventually": 4636,
      "immediate": 4637,
      "purposes": 4638,
      "estaba": 4639,
      "faces": 4640,
      "hoarding": 4641,
      "monuments": 4642,
      "sending": 4643,
      "touched": 4644,
      "##undan": 4645,
      "receive": 4646,
      "##versary": 4647,
      "accepting": 4648,
      "particular": 4649,
      "personalized": 4650,
      "scammers": 4651,
      "fixed": 4652,
      "fixing": 4653,
      "countries": 4654,
      "girl": 4655,
      "mila": 4656,
      "mosque": 4657,
      "nalways": 4658,
      "telling": 4659,
      "vege": 4660,
      "ashish": 4661,
      "engage": 4662,
      "control": 4663,
      "availabel": 4664,
      "community": 4665,
      "thoughtful": 4666,
      "assisted": 4667,
      "assisting": 4668,
      "strongly": 4669,
      "demands": 4670,
      "flexibility": 4671,
      "1100": 4672,
      "11pm": 4673,
      "1162": 4674,
      "bananas": 4675,
      "dormitory": 4676,
      "jasola": 4677,
      "kahi": 4678,
      "khan": 4679,
      "nlots": 4680,
      "nfree": 4681,
      "nfacilities": 4682,
      "nfirst": 4683,
      "ratio": 4684,
      "sights": 4685,
      "talk": 4686,
      "village": 4687,
      "wishes": 4688,
      "##manager": 4689,
      "exists": 4690,
      "sunil": 4691,
      "sunsh": 4692,
      "sunstar": 4693,
      "taxes": 4694,
      "stores": 4695,
      "storage": 4696,
      "papers": 4697,
      "spotlessly": 4698,
      "tuktuks": 4699,
      "impeccably": 4700,
      "cabs": 4701,
      "cabin": 4702,
      "dustbin": 4703,
      "freely": 4704,
      "freind": 4705,
      "frendly": 4706,
      "favour": 4707,
      "goon": 4708,
      "jai": 4709,
      "passport": 4710,
      "tarrif": 4711,
      "turned": 4712,
      "##ucated": 4713,
      "##resp": 4714,
      "##sheets": 4715,
      "clearly": 4716,
      "presenta": 4717,
      "trustwor": 4718,
      "majnu": 4719,
      "keys": 4720,
      "understanding": 4721,
      "electricity": 4722,
      "camera": 4723,
      "cups": 4724,
      "linens": 4725,
      "satya": 4726,
      "treated": 4727,
      "treatment": 4728,
      "vintage": 4729,
      "##irrels": 4730,
      "aspects": 4731,
      "negoti": 4732,
      "subur": 4733,
      "preferred": 4734,
      "cocktails": 4735,
      "surroundings": 4736,
      "usefull": 4737,
      "apolog": 4738,
      "occas": 4739,
      "occupying": 4740,
      "mosquitoes": 4741,
      "boast": 4742,
      "created": 4743,
      "creates": 4744,
      "lady": 4745,
      "ladies": 4746,
      "landing": 4747,
      "operative": 4748,
      "testy": 4749,
      "testing": 4750,
      "verry": 4751,
      "vacant": 4752,
      "##ierge": 4753,
      "##gali": 4754,
      "formal": 4755,
      "alloted": 4756,
      "allotted": 4757,
      "##ambience": 4758,
      "suites": 4759,
      "actioned": 4760,
      "concern": 4761,
      "concierge": 4762,
      "escort": 4763,
      "nspacious": 4764,
      "efforts": 4765,
      "bhaiya": 4766,
      "celebrate": 4767,
      "following": 4768,
      "hesitate": 4769,
      "nrecommended": 4770,
      "systems": 4771,
      "boutique": 4772,
      "educated": 4773,
      "feature": 4774,
      "features": 4775,
      "hindi": 4776,
      "holiday": 4777,
      "materials": 4778,
      "networ": 4779,
      "navigate": 4780,
      "obj": 4781,
      "obvious": 4782,
      "werent": 4783,
      "##ttes": 4784,
      "##tarpur": 4785,
      "attending": 4786,
      "spoke": 4787,
      "shahine": 4788,
      "sabse": 4789,
      "valued": 4790,
      "guiding": 4791,
      "guidance": 4792,
      "steps": 4793,
      "##sions": 4794,
      "prepare": 4795,
      "prepaid": 4796,
      "unsafe": 4797,
      "unsatis": 4798,
      "unwanted": 4799,
      "adjustable": 4800,
      "roaming": 4801,
      "relief": 4802,
      "cheaters": 4803,
      "genuine": 4804,
      "genuinely": 4805,
      "empty": 4806,
      "colony": 4807,
      "colonial": 4808,
      "2022": 4809,
      "circumstan": 4810,
      "bike": 4811,
      "bengali": 4812,
      "cuisine": 4813,
      "domin": 4814,
      "destinations": 4815,
      "flying": 4816,
      "gaffar": 4817,
      "hyge": 4818,
      "history": 4819,
      "hygenic": 4820,
      "kashmir": 4821,
      "massage": 4822,
      "opportun": 4823,
      "squirrels": 4824,
      "sessions": 4825,
      "sachets": 4826,
      "telephone": 4827,
      "yogurt": 4828,
      "##ezing": 4829,
      "##services": 4830,
      "##basic": 4831,
      "##haved": 4832,
      "thik": 4833,
      "iskcon": 4834,
      "clealiness": 4835,
      "forgotten": 4836,
      "exelent": 4837,
      "comparison": 4838,
      "rejuvenating": 4839,
      "trouble": 4840,
      "lively": 4841,
      "departure": 4842,
      "recomend": 4843,
      "reccomend": 4844,
      "outdoor": 4845,
      "abhishek": 4846,
      "maidens": 4847,
      "displayed": 4848,
      "discounted": 4849,
      "premises": 4850,
      "parantha": 4851,
      "flooded": 4852,
      "flowers": 4853,
      "appeared": 4854,
      "feedback": 4855,
      "gratitude": 4856,
      "commute": 4857,
      "consistently": 4858,
      "assigned": 4859,
      "purchase": 4860,
      "corridor": 4861,
      "marriot": 4862,
      "seriously": 4863,
      "ignou": 4864,
      "minimalistic": 4865,
      "gentleman": 4866,
      "russia": 4867,
      "separate": 4868,
      "wardrobe": 4869,
      "restricted": 4870,
      "cigarettes": 4871,
      "llamamos": 4872,
      "malviya": 4873,
      "pitampura": 4874,
      "represents": 4875,
      "9415": 4876,
      "bustling": 4877,
      "coustom": 4878,
      "downtown": 4879,
      "dangerous": 4880,
      "foot": 4881,
      "filthy": 4882,
      "gulshan": 4883,
      "ghatiya": 4884,
      "halt": 4885,
      "husband": 4886,
      "jatin": 4887,
      "justi": 4888,
      "journey": 4889,
      "lines": 4890,
      "llegamos": 4891,
      "limited": 4892,
      "lemon": 4893,
      "language": 4894,
      "mix": 4895,
      "medical": 4896,
      "obliging": 4897,
      "poha": 4898,
      "pvr": 4899,
      "piece": 4900,
      "qutub": 4901,
      "rishi": 4902,
      "rarely": 4903,
      "royal": 4904,
      "roshan": 4905,
      "skills": 4906,
      "straight": 4907,
      "sympath": 4908,
      "tej": 4909,
      "watching": 4910,
      "yesterday": 4911,
      "zimmer": 4912,
      "##upied": 4913,
      "##iastic": 4914,
      "##delhi": 4915,
      "##dryer": 4916,
      "##maculate": 4917,
      "##homely": 4918,
      "threatening": 4919,
      "thumbs": 4920,
      "stalls": 4921,
      "cluster": 4922,
      "clothes": 4923,
      "prawn": 4924,
      "exllent": 4925,
      "excelent": 4926,
      "staybook": 4927,
      "##veillance": 4928,
      "roomshala": 4929,
      "sporting": 4930,
      "friendlyfoods": 4931,
      "plumbing": 4932,
      "plentiful": 4933,
      "sufficient": 4934,
      "supposed": 4935,
      "anniversary": 4936,
      "sockets": 4937,
      "welltrained": 4938,
      "wellappointed": 4939,
      "sharma": 4940,
      "enabled": 4941,
      "enclave": 4942,
      "enthusiastic": 4943,
      "receptionlobby": 4944,
      "performance": 4945,
      "mahraja": 4946,
      "coordinate": 4947,
      "aggressiv": 4948,
      "stinky": 4949,
      "impression": 4950,
      "unnecess": 4951,
      "vivanta": 4952,
      "intercontinental": 4953,
      "bucket": 4954,
      "backpackers": 4955,
      "brakfast": 4956,
      "humayuns": 4957,
      "emergency": 4958,
      "refrigerator": 4959,
      "misbehaved": 4960,
      "elsewhere": 4961,
      "surprisingly": 4962,
      "automatically": 4963,
      "currency": 4964,
      "homestay": 4965,
      "sarojini": 4966,
      "sunshine": 4967,
      "trustworthy": 4968,
      "negotiated": 4969,
      "circumstances": 4970,
      "opportunity": 4971
    }
  }
}