{
  "version": "1.0",
  "truncation": {
    "direction": "Right",
    "max_length": 128,
    "strategy": "LongestFirst",
    "stride": 0
  },
  "padding": {
    "strategy": {
      "Fixed": 128
    },
    "direction": "Right",
    "pad_to_multiple_of": null,
    "pad_id": 0,
    "pad_type_id": 0,
    "pad_token": "[PAD]"
  },
  "added_tokens": [
    {
      "id": 0,
      "content": "[PAD]",
      "single_word": false,
      "lstrip": false,
      "rstrip": false,
      "normalized": false,
      "special": true
    },
    {
      "id": 1,
      "content": "[UNK]",
      "single_word": false,
      "lstrip": false,
      "rstrip": false,
      "normalized": false,
      "special": true
    },
    {
      "id": 2,
      "content": "[CLS]",
      "single_word": false,
      "lstrip": false,
      "rstrip": false,
      "normalized": false,
      "special": true
    },
    {
      "id": 3,
      "content": "[SEP]",
      "single_word": false,
      "lstrip": false,
      "rstrip": false,
      "normalized": false,
      "special": true
    },
    {
      "id": 4,
      "content": "[MASK]",
      "single_word": false,
      "lstrip": false,
      "rstrip": false,
      "normalized": false,
      "special": true
    }
  ],
  "normalizer": {
    "type": "BertNormalizer",
    "clean_text": true,
    "handle_chinese_chars": true,
    "strip_accents": null,
    "lowercase": true
  },
  "pre_tokenizer": {
    "type": "BertPreTokenizer"
  },
  "post_processor": {
    "type": "TemplateProcessing",
    "single": [
      {
        "SpecialToken": {
          "id": "[CLS]",
          "type_id": 0
        }
      },
      {
        "Sequence": {
          "id": "A",
          "type_id": 0
        }
      },
      {
        "SpecialToken": {
          "id": "[SEP]",
          "type_id": 0
        }
      }
    ],
    "pair": [
      {
        "SpecialToken": {
          "id": "[CLS]",
          "type_id": 0
        }
      },
      {
        "Sequence": {
          "id": "A",
          "type_id": 0
        }
      },
      {
        "SpecialToken": {
          "id": "[SEP]",
          "type_id": 0
        }
      },
      {
        "Sequence": {
          "id": "B",
          "type_id": 1
        }
      },
      {
        "SpecialToken": {
          "id": "[SEP]",
          "type_id": 1
        }
      }
    ],
    "special_tokens": {
      "[CLS]": {
        "id": "[CLS]",
        "ids": [
          2
        ],
        "tokens": [
          "[CLS]"
        ]
      },
      "[SEP]": {
        "id": "[SEP]",
        "ids": [
          3
        ],
        "tokens": [
          "[SEP]"
        ]
      }
    }
  },
  "decoder": {
    "type": "WordPiece",
    "prefix": "##",
    "cleanup": true
  },
  "model": {
    "type": "WordPiece",
    "unk_token": "[UNK]",
    "continuing_subword_prefix": "##",
    "max_input_chars_per_word": 100,
    "vocab": {
      "[PAD]": 0,
      "[UNK]": 1,
      "[CLS]": 2,
      "[SEP]": 3,
      "[MASK]": 4,
      "'": 5,
      ",": 6,
      "0": 7,
      "1": 8,
      "2": 9,
      "3": 10,
      "4": 11,
      "5": 12,
      "6": 13,
      "7": 14,
      "8": 15,
      "9": 16,
      "[": 17,
      "\\": 18,
      "]": 19,
      "a": 20,
      "b": 21,
      "c": 22,
      "d": 23,
      "e": 24,
      "f": 25,
      "g": 26,
      "h": 27,
      "i": 28,
      "j": 29,
      "k": 30,
      "l": 31,
      "m": 32,
      "n": 33,
      "o": 34,
      "p": 35,
      "q": 36,
      "r": 37,
      "s": 38,
      "t": 39,
      "u": 40,
      "v": 41,
      "w": 42,
      "x": 43,
      "y": 44,
      "z": 45,
      "##o": 46,
      "##n": 47,
      "##e": 48,
      "##a": 49,
      "##t": 50,
      "##g": 51,
      "##r": 52,
      "##c": 53,
      "##s": 54,
      "##i": 55,
      "##u": 56,
      "##v": 57,
      "##k": 58,
      "##x": 59,
      "##p": 60,
      "##h": 61,
      "##y": 62,
      "##w": 63,
      "##d": 64,
      "##m": 65,
      "##l": 66,
      "##b": 67,
      "##f": 68,
      "##j": 69,
      "##1": 70,
      "##0": 71,
      "##z": 72,
      "##4": 73,
      "##8": 74,
      "##2": 75,
      "##5": 76,
      "##3": 77,
      "##q": 78,
      "##7": 79,
      "##9": 80,
      "##6": 81,
      "##er": 82,
      "th": 83,
      "##oo": 84,
      "##nd": 85,
      "the": 86,
      "##ta": 87,
      "##as": 88,
      "##el": 89,
      "and": 90,
      "##in": 91,
      "##le": 92,
      "##at": 93,
      "##or": 94,
      "##on": 95,
      "##ce": 96,
      "sta": 97,
      "was": 98,
      "##re": 99,
      "##ood": 100,
      "##ot": 101,
      "##ed": 102,
      "##en": 103,
      "##ing": 104,
      "##an": 105,
      "##om": 106,
      "##it": 107,
      "##ff": 108,
      "##ion": 109,
      "##ery": 110,
      "##ou": 111,
      "##oom": 112,
      "good": 113,
      "to": 114,
      "staff": 115,
      "room": 116,
      "is": 117,
      "re": 118,
      "##al": 119,
      "##is": 120,
      "##ly": 121,
      "very": 122,
      "##ice": 123,
      "for": 124,
      "lo": 125,
      "##es": 126,
      "hot": 127,
      "##ble": 128,
      "in": 129,
      "hotel": 130,
      "##ar": 131,
      "##ation": 132,
      "loc": 133,
      "##ere": 134,
      "##il": 135,
      "com": 136,
      "##ie": 137,
      "##ts": 138,
      "location": 139,
      "##lean": 140,
      "clean": 141,
      "ex": 142,
      "##ul": 143,
      "this": 144,
      "fr": 145,
      "pr": 146,
      "stay": 147,
      "al": 148,
      "of": 149,
      "##ec": 150,
      "ne": 151,
      "##ful": 152,
      "##ve": 153,
      "no": 154,
      "not": 155,
      "##ut": 156,
      "##able": 157,
      "##per": 158,
      "are": 159,
      "##men": 160,
      "##ak": 161,
      "##et": 162,
      "##nt": 163,
      "nice": 164,
      "##os": 165,
      "##ad": 166,
      "##th": 167,
      "were": 168,
      "##ic": 169,
      "##ail": 170,
      "##ur": 171,
      "##id": 172,
      "##ac": 173,
      "##erv": 174,
      "##tion": 175,
      "##elp": 176,
      "help": 177,
      "##gh": 178,
      "##ith": 179,
      "at": 180,
      "with": 181,
      "serv": 182,
      "it": 183,
      "##ir": 184,
      "av": 185,
      "##ast": 186,
      "##ay": 187,
      "avail": 188,
      "pro": 189,
      "service": 190,
      "available": 191,
      "on": 192,
      "##iew": 193,
      "food": 194,
      "##for": 195,
      "be": 196,
      "rooms": 197,
      "ch": 198,
      "ev": 199,
      "##ous": 200,
      "wh": 201,
      "##reat": 202,
      "##ments": 203,
      "helpful": 204,
      "we": 205,
      "rev": 206,
      "review": 207,
      "##iend": 208,
      "comments": 209,
      "##st": 210,
      "friend": 211,
      "great": 212,
      "##ien": 213,
      "##me": 214,
      "##table": 215,
      "##igh": 216,
      "they": 217,
      "##reak": 218,
      "sp": 219,
      "##fast": 220,
      "comfor": 221,
      "##reakfast": 222,
      "##ace": 223,
      "you": 224,
      "friendly": 225,
      "##ally": 226,
      "breakfast": 227,
      "as": 228,
      "##ain": 229,
      "##com": 230,
      "comfortable": 231,
      "##ity": 232,
      "##king": 233,
      "all": 234,
      "wel": 235,
      "##ty": 236,
      "##ver": 237,
      "##ow": 238,
      "del": 239,
      "pl": 240,
      "##ely": 241,
      "but": 242,
      "##ive": 243,
      "my": 244,
      "##ort": 245,
      "ha": 246,
      "am": 247,
      "from": 248,
      "##so": 249,
      "##ld": 250,
      "##ious": 251,
      "ac": 252,
      "every": 253,
      "li": 254,
      "##lent": 255,
      "qu": 256,
      "##our": 257,
      "su": 258,
      "tr": 259,
      "##ge": 260,
      "sh": 261,
      "that": 262,
      "##cel": 263,
      "so": 264,
      "##all": 265,
      "there": 266,
      "well": 267,
      "##ter": 268,
      "an": 269,
      "##one": 270,
      "me": 271,
      "##est": 272,
      "place": 273,
      "##ch": 274,
      "##ience": 275,
      "##port": 276,
      "##cellent": 277,
      "##av": 278,
      "##hi": 279,
      "had": 280,
      "##am": 281,
      "excellent": 282,
      "##ent": 283,
      "##ke": 284,
      "proper": 285,
      "boo": 286,
      "##ess": 287,
      "also": 288,
      "##ption": 289,
      "near": 290,
      "##ite": 291,
      "##ight": 292,
      "##ill": 293,
      "really": 294,
      "our": 295,
      "##room": 296,
      "##ies": 297,
      "wor": 298,
      "##az": 299,
      "##hing": 300,
      "##thing": 301,
      "exper": 302,
      "##ant": 303,
      "##ked": 304,
      "experience": 305,
      "air": 306,
      "##ust": 307,
      "bed": 308,
      "##ro": 309,
      "delhi": 310,
      "res": 311,
      "have": 312,
      "de": 313,
      "nothing": 314,
      "property": 315,
      "its": 316,
      "##ome": 317,
      "chec": 318,
      "cl": 319,
      "##ould": 320,
      "man": 321,
      "everything": 322,
      "us": 323,
      "##ue": 324,
      "##ers": 325,
      "##ol": 326,
      "over": 327,
      "##ind": 328,
      "con": 329,
      "##us": 330,
      "en": 331,
      "##ond": 332,
      "##ception": 333,
      "##azing": 334,
      "##way": 335,
      "##ect": 336,
      "airport": 337,
      "sa": 338,
      "##ities": 339,
      "##pp": 340,
      "like": 341,
      "amazing": 342,
      "##hroom": 343,
      "hos": 344,
      "station": 345,
      "ab": 346,
      "##acious": 347,
      "check": 348,
      "by": 349,
      "price": 350,
      "##ose": 351,
      "spacious": 352,
      "##oney": 353,
      "money": 354,
      "main": 355,
      "##vid": 356,
      "ar": 357,
      "ti": 358,
      "##ag": 359,
      "##mend": 360,
      "##ple": 361,
      "did": 362,
      "nth": 363,
      "##ss": 364,
      "beh": 365,
      "##ated": 366,
      "##iv": 367,
      "##out": 368,
      "reception": 369,
      "##ake": 370,
      "##ate": 371,
      "provid": 372,
      "best": 373,
      "will": 374,
      "than": 375,
      "booking": 376,
      "##commend": 377,
      "met": 378,
      "he": 379,
      "##tal": 380,
      "need": 381,
      "ext": 382,
      "behav": 383,
      "bat": 384,
      "##ud": 385,
      "recommend": 386,
      "close": 387,
      "##ig": 388,
      "mor": 389,
      "too": 390,
      "##ich": 391,
      "metro": 392,
      "or": 393,
      "per": 394,
      "fac": 395,
      "val": 396,
      "st": 397,
      "##od": 398,
      "which": 399,
      "behavi": 400,
      "##ure": 401,
      "value": 402,
      "ag": 403,
      "coo": 404,
      "overall": 405,
      "bathroom": 406,
      "nthe": 407,
      "##taur": 408,
      "##ater": 409,
      "vis": 410,
      "time": 411,
      "facil": 412,
      "day": 413,
      "##ont": 414,
      "only": 415,
      "##iz": 416,
      "##ality": 417,
      "area": 418,
      "fe": 419,
      "##if": 420,
      "##ile": 421,
      "##ough": 422,
      "restaur": 423,
      "can": 424,
      "##ment": 425,
      "gu": 426,
      "sm": 427,
      "##pi": 428,
      "pe": 429,
      "##ard": 430,
      "pol": 431,
      "##ks": 432,
      "##are": 433,
      "##qu": 434,
      "even": 435,
      "##ound": 436,
      "##fect": 437,
      "##oor": 438,
      "hospi": 439,
      "lov": 440,
      "one": 441,
      "again": 442,
      "##ily": 443,
      "##ist": 444,
      "pre": 445,
      "##ee": 446,
      "when": 447,
      "any": 448,
      "high": 449,
      "##iness": 450,
      "perfect": 451,
      "polite": 452,
      "if": 453,
      "would": 454,
      "##eci": 455,
      "visit": 456,
      "here": 457,
      "##ark": 458,
      "just": 459,
      "water": 460,
      "##fe": 461,
      "exp": 462,
      "night": 463,
      "ok": 464,
      "##oy": 465,
      "att": 466,
      "out": 467,
      "##im": 468,
      "af": 469,
      "##ative": 470,
      "up": 471,
      "im": 472,
      "quality": 473,
      "new": 474,
      "##ach": 475,
      "facilities": 476,
      "des": 477,
      "behaviour": 478,
      "dis": 479,
      "kind": 480,
      "after": 481,
      "fl": 482,
      "off": 483,
      "##ide": 484,
      "super": 485,
      "wal": 486,
      "manag": 487,
      "cooper": 488,
      "staffs": 489,
      "their": 490,
      "show": 491,
      "hospital": 492,
      "eas": 493,
      "##ient": 494,
      "more": 495,
      "##aut": 496,
      "##age": 497,
      "##iful": 498,
      "bad": 499,
      "##pt": 500,
      "min": 501,
      "##ab": 502,
      "##tain": 503,
      "##ost": 504,
      "##ner": 505,
      "beaut": 506,
      "trav": 507,
      "##ra": 508,
      "hospitality": 509,
      "fam": 510,
      "beautiful": 511,
      "travel": 512,
      "na": 513,
      "##ine": 514,
      "provided": 515,
      "your": 516,
      "big": 517,
      "neat": 518,
      "safe": 519,
      "some": 520,
      "##un": 521,
      "didnt": 522,
      "fre": 523,
      "wif": 524,
      "cooperative": 525,
      "get": 526,
      "##liness": 527,
      "##ecially": 528,
      "te": 529,
      "stayed": 530,
      "##erful": 531,
      "hotels": 532,
      "about": 533,
      "restaurant": 534,
      "wond": 535,
      "arr": 536,
      "ad": 537,
      "go": 538,
      "un": 539,
      "##ade": 540,
      "family": 541,
      "co": 542,
      "mu": 543,
      "##te": 544,
      "##cent": 545,
      "enj": 546,
      "has": 547,
      "par": 548,
      "ro": 549,
      "##mely": 550,
      "welcom": 551,
      "enjoy": 552,
      "do": 553,
      "es": 554,
      "extre": 555,
      "ple": 556,
      "siz": 557,
      "##tle": 558,
      "inter": 559,
      "services": 560,
      "accom": 561,
      "working": 562,
      "manager": 563,
      "wonderful": 564,
      "pleas": 565,
      "di": 566,
      "se": 567,
      "inc": 568,
      "cleanliness": 569,
      "##icious": 570,
      "##ways": 571,
      "mark": 572,
      "##fin": 573,
      "thing": 574,
      "##ance": 575,
      "peo": 576,
      "##um": 577,
      "##cess": 578,
      "##tions": 579,
      "extremely": 580,
      "oth": 581,
      "##menities": 582,
      "delicious": 583,
      "defin": 584,
      "people": 585,
      "##ible": 586,
      "##by": 587,
      "located": 588,
      "##iet": 589,
      "app": 590,
      "could": 591,
      "##itely": 592,
      "##tained": 593,
      "much": 594,
      "amenities": 595,
      "##se": 596,
      "##mod": 597,
      "##oth": 598,
      "##arly": 599,
      "always": 600,
      "cour": 601,
      "wifi": 602,
      "definitely": 603,
      "##red": 604,
      "requ": 605,
      "who": 606,
      "accommod": 607,
      "made": 608,
      "##ning": 609,
      "home": 610,
      "##ven": 611,
      "quite": 612,
      "##use": 613,
      "fan": 614,
      "##nce": 615,
      "##ession": 616,
      "##ep": 617,
      "##sh": 618,
      "char": 619,
      "quiet": 620,
      "decent": 621,
      "maintained": 622,
      "highly": 623,
      "size": 624,
      "##pport": 625,
      "##00": 626,
      "imp": 627,
      "take": 628,
      "##ating": 629,
      "other": 630,
      "##fession": 631,
      "comp": 632,
      "bu": 633,
      "ind": 634,
      "rail": 635,
      "##ax": 636,
      "##ong": 637,
      "##ack": 638,
      "##ouse": 639,
      "support": 640,
      "easy": 641,
      "##ib": 642,
      "##ition": 643,
      "aw": 644,
      "##oc": 645,
      "##ise": 646,
      "resp": 647,
      "road": 648,
      "railway": 649,
      "bec": 650,
      "dont": 651,
      "tast": 652,
      "##ause": 653,
      "##ry": 654,
      "conven": 655,
      "feel": 656,
      "market": 657,
      "pers": 658,
      "##tance": 659,
      "amb": 660,
      "booked": 661,
      "person": 662,
      "how": 663,
      "##ap": 664,
      "host": 665,
      "small": 666,
      "convenient": 667,
      "city": 668,
      "##we": 669,
      "lovely": 670,
      "because": 671,
      "bet": 672,
      "care": 673,
      "dir": 674,
      "ent": 675,
      "house": 676,
      "make": 677,
      "##get": 678,
      "##ish": 679,
      "around": 680,
      "##ct": 681,
      "##ered": 682,
      "profession": 683,
      "##teous": 684,
      "diff": 685,
      "courteous": 686,
      "bus": 687,
      "loo": 688,
      "##ged": 689,
      "##ied": 690,
      "che": 691,
      "loved": 692,
      "early": 693,
      "##ress": 694,
      "##ants": 695,
      "liked": 696,
      "thank": 697,
      "lot": 698,
      "##yg": 699,
      "##led": 700,
      "##op": 701,
      "##ests": 702,
      "ns": 703,
      "ow": 704,
      "tw": 705,
      "space": 706,
      "checkin": 707,
      "awes": 708,
      "dirty": 709,
      "##ick": 710,
      "extra": 711,
      "indi": 712,
      "find": 713,
      "rel": 714,
      "view": 715,
      "##here": 716,
      "##lut": 717,
      "front": 718,
      "beds": 719,
      "distance": 720,
      "##ygien": 721,
      "want": 722,
      "come": 723,
      "been": 724,
      "train": 725,
      "enjoyed": 726,
      "awesome": 727,
      "what": 728,
      "dr": 729,
      "lu": 730,
      "##and": 731,
      "##xt": 732,
      "happ": 733,
      "short": 734,
      "morning": 735,
      "le": 736,
      "ou": 737,
      "tour": 738,
      "##ior": 739,
      "##ason": 740,
      "washroom": 741,
      "##itch": 742,
      "nearby": 743,
      "attent": 744,
      "walk": 745,
      "back": 746,
      "got": 747,
      "most": 748,
      "##mb": 749,
      "##solut": 750,
      "desk": 751,
      "floor": 752,
      "away": 753,
      "lar": 754,
      "##very": 755,
      "reason": 756,
      "helped": 757,
      "many": 758,
      "better": 759,
      "##ass": 760,
      "##ange": 761,
      "toile": 762,
      "reach": 763,
      "supportive": 764,
      "kn": 765,
      "lit": 766,
      "pay": 767,
      "##good": 768,
      "##ip": 769,
      "##ondition": 770,
      "absolut": 771,
      "hour": 772,
      "kitch": 773,
      "mr": 774,
      "ni": 775,
      "pa": 776,
      "sec": 777,
      "went": 778,
      "##ights": 779,
      "outs": 780,
      "large": 781,
      "din": 782,
      "fir": 783,
      "poor": 784,
      "##pecially": 785,
      "##ord": 786,
      "##act": 787,
      "ever": 788,
      "where": 789,
      "few": 790,
      "name": 791,
      "pleasant": 792,
      "attentive": 793,
      "kitchen": 794,
      "hygien": 795,
      "##ft": 796,
      "##fy": 797,
      "##tast": 798,
      "##ention": 799,
      "access": 800,
      "fantast": 801,
      "fantastic": 802,
      "bud": 803,
      "condition": 804,
      "fel": 805,
      "though": 806,
      "them": 807,
      "##ans": 808,
      "bookingcom": 809,
      "walking": 810,
      "minut": 811,
      "respon": 812,
      "professional": 813,
      "little": 814,
      "budget": 815,
      "call": 816,
      "ful": 817,
      "tv": 818,
      "##tty": 819,
      "worth": 820,
      "restaurants": 821,
      "pretty": 822,
      "absolutely": 823,
      "##oin": 824,
      "##sive": 825,
      "provide": 826,
      "needed": 827,
      "welcoming": 828,
      "especially": 829,
      "##other": 830,
      "differ": 831,
      "first": 832,
      "cust": 833,
      "gr": 834,
      "##end": 835,
      "##taff": 836,
      "##ree": 837,
      "ord": 838,
      "team": 839,
      "arriv": 840,
      "ambience": 841,
      "custom": 842,
      "24": 843,
      "option": 844,
      "##ever": 845,
      "##ci": 846,
      "comfy": 847,
      "##ady": 848,
      "##urn": 849,
      "pos": 850,
      "way": 851,
      "love": 852,
      "next": 853,
      "another": 854,
      "shower": 855,
      "cou": 856,
      "ma": 857,
      "##ave": 858,
      "##hot": 859,
      "prom": 860,
      "free": 861,
      "happy": 862,
      "##ove": 863,
      "##to": 864,
      "##ted": 865,
      "##gg": 866,
      "took": 867,
      "fab": 868,
      "giv": 869,
      "tow": 870,
      "ins": 871,
      "specially": 872,
      "guy": 873,
      "incred": 874,
      "two": 875,
      "toilet": 876,
      "felt": 877,
      "different": 878,
      "cent": 879,
      "##ting": 880,
      "##ling": 881,
      "cleaning": 882,
      "##ign": 883,
      "say": 884,
      "tax": 885,
      "##lud": 886,
      "##food": 887,
      "staying": 888,
      "manage": 889,
      "peace": 890,
      "fresh": 891,
      "reasonable": 892,
      "know": 893,
      "var": 894,
      "star": 895,
      "exception": 896,
      "##uring": 897,
      "atm": 898,
      "asked": 899,
      "behavior": 900,
      "dec": 901,
      "eff": 902,
      "his": 903,
      "##ool": 904,
      "comm": 905,
      "exce": 906,
      "while": 907,
      "trans": 908,
      "same": 909,
      "thanks": 910,
      "days": 911,
      "guests": 912,
      "expec": 913,
      "includ": 914,
      "compl": 915,
      "tasty": 916,
      "dinner": 917,
      "full": 918,
      "old": 919,
      "sit": 920,
      "sur": 921,
      "cleaned": 922,
      "work": 923,
      "accommodating": 924,
      "hostel": 925,
      "expecta": 926,
      "give": 927,
      "ngood": 928,
      "right": 929,
      "sle": 930,
      "see": 931,
      "tak": 932,
      "rest": 933,
      "##ild": 934,
      "##fore": 935,
      "act": 936,
      "##ared": 937,
      "management": 938,
      "ca": 939,
      "late": 940,
      "must": 941,
      "nn": 942,
      "sim": 943,
      "##yond": 944,
      "##loc": 945,
      "stand": 946,
      "total": 947,
      "never": 948,
      "beyond": 949,
      "memb": 950,
      "enough": 951,
      "guest": 952,
      "den": 953,
      "during": 954,
      "mod": 955,
      "pic": 956,
      "##oice": 957,
      "thr": 958,
      "told": 959,
      "comfort": 960,
      "add": 961,
      "part": 962,
      "owner": 963,
      "minutes": 964,
      "fast": 965,
      "fine": 966,
      "pool": 967,
      "##ture": 968,
      "##ms": 969,
      "iss": 970,
      "before": 971,
      "request": 972,
      "expectations": 973,
      "10": 974,
      "nvery": 975,
      "##ire": 976,
      "##ial": 977,
      "##med": 978,
      "trip": 979,
      "book": 980,
      "recommended": 981,
      "ba": 982,
      "bit": 983,
      "##gan": 984,
      "##arm": 985,
      "ass": 986,
      "cons": 987,
      "superb": 988,
      "does": 989,
      "interior": 990,
      "things": 991,
      "india": 992,
      "mar": 993,
      "mak": 994,
      "##con": 995,
      "##ving": 996,
      "##pe": 997,
      "##ash": 998,
      "##ell": 999,
      "##elf": 1000,
      "top": 1001,
      "such": 1002,
      "##keep": 1003,
      "checkout": 1004,
      "customer": 1005,
      "options": 1006,
      "prompt": 1007,
      "peaceful": 1008,
      "cal": 1009,
      "car": 1010,
      "kee": 1011,
      "##iver": 1012,
      "##phere": 1013,
      "##ha": 1014,
      "then": 1015,
      "##osphere": 1016,
      "needs": 1017,
      "##ibly": 1018,
      "taxi": 1019,
      "atmosphere": 1020,
      "standard": 1021,
      "bal": 1022,
      "kar": 1023,
      "nd": 1024,
      "nwe": 1025,
      "sat": 1026,
      "##pr": 1027,
      "##day": 1028,
      "##ern": 1029,
      "##reci": 1030,
      "without": 1031,
      "sure": 1032,
      "worst": 1033,
      "said": 1034,
      "above": 1035,
      "receptionist": 1036,
      "##eets": 1037,
      "##ecial": 1038,
      "expect": 1039,
      "offered": 1040,
      "hours": 1041,
      "arrived": 1042,
      "sleep": 1043,
      "hum": 1044,
      "nb": 1045,
      "##ita": 1046,
      "##xur": 1047,
      "##art": 1048,
      "##icul": 1049,
      "choice": 1050,
      "quick": 1051,
      "shown": 1052,
      "appreci": 1053,
      "outside": 1054,
      "incredibly": 1055,
      "centr": 1056,
      "keep": 1057,
      "done": 1058,
      "each": 1059,
      "nights": 1060,
      "##rac": 1061,
      "##bl": 1062,
      "##ised": 1063,
      "##ations": 1064,
      "within": 1065,
      "conn": 1066,
      "##ude": 1067,
      "intern": 1068,
      "housekeep": 1069,
      "relax": 1070,
      "luxur": 1071,
      "housekeeping": 1072,
      "br": 1073,
      "bas": 1074,
      "far": 1075,
      "##zy": 1076,
      "##ory": 1077,
      "##ount": 1078,
      "reg": 1079,
      "ready": 1080,
      "local": 1081,
      "##icient": 1082,
      "allow": 1083,
      "everyone": 1084,
      "clos": 1085,
      "welcome": 1086,
      "nstaff": 1087,
      "exceptional": 1088,
      "picture": 1089,
      "through": 1090,
      "both": 1091,
      "fa": 1092,
      "long": 1093,
      "mention": 1094,
      "nit": 1095,
      "wind": 1096,
      "##not": 1097,
      "##ness": 1098,
      "##aj": 1099,
      "##ten": 1100,
      "##clean": 1101,
      "##mp": 1102,
      "##tand": 1103,
      "##ath": 1104,
      "##anged": 1105,
      "##isf": 1106,
      "special": 1107,
      "##own": 1108,
      "try": 1109,
      "facility": 1110,
      "however": 1111,
      "couple": 1112,
      "modern": 1113,
      "window": 1114,
      "et": 1115,
      "warm": 1116,
      "##ey": 1117,
      "##ime": 1118,
      "##pen": 1119,
      "##ence": 1120,
      "##ank": 1121,
      "neigh": 1122,
      "env": 1123,
      "flight": 1124,
      "charged": 1125,
      "build": 1126,
      "towel": 1127,
      "##ractions": 1128,
      "neighb": 1129,
      "eat": 1130,
      "nh": 1131,
      "nroom": 1132,
      "##ually": 1133,
      "##hood": 1134,
      "##onment": 1135,
      "##ensive": 1136,
      "noise": 1137,
      "##ironment": 1138,
      "expensive": 1139,
      "buff": 1140,
      "given": 1141,
      "inside": 1142,
      "decor": 1143,
      "efficient": 1144,
      "bagh": 1145,
      "##cony": 1146,
      "balcony": 1147,
      "environment": 1148,
      "nw": 1149,
      "ter": 1150,
      "wa": 1151,
      "##ming": 1152,
      "proble": 1153,
      "being": 1154,
      "spe": 1155,
      "should": 1156,
      "ens": 1157,
      "hospitable": 1158,
      "cozy": 1159,
      "business": 1160,
      "cheap": 1161,
      "accessible": 1162,
      "totally": 1163,
      "humble": 1164,
      "buffet": 1165,
      "aff": 1166,
      "pur": 1167,
      "##har": 1168,
      "##tary": 1169,
      "##ink": 1170,
      "inn": 1171,
      "coming": 1172,
      "nois": 1173,
      "areas": 1174,
      "##mentary": 1175,
      "plus": 1176,
      "parking": 1177,
      "taste": 1178,
      "hygiene": 1179,
      "hygienic": 1180,
      "order": 1181,
      "members": 1182,
      "making": 1183,
      "building": 1184,
      "afford": 1185,
      "15": 1186,
      "bl": 1187,
      "bir": 1188,
      "let": 1189,
      "list": 1190,
      "mat": 1191,
      "phot": 1192,
      "sw": 1193,
      "set": 1194,
      "##ya": 1195,
      "##lo": 1196,
      "##ooth": 1197,
      "##ility": 1198,
      "##iety": 1199,
      "served": 1200,
      "places": 1201,
      "checked": 1202,
      "providing": 1203,
      "attractions": 1204,
      "busy": 1205,
      "indian": 1206,
      "exceed": 1207,
      "etc": 1208,
      "mid": 1209,
      "open": 1210,
      "rate": 1211,
      "sc": 1212,
      "soo": 1213,
      "##uly": 1214,
      "##where": 1215,
      "##mes": 1216,
      "rem": 1217,
      "##ary": 1218,
      "spec": 1219,
      "smile": 1220,
      "smooth": 1221,
      "design": 1222,
      "impro": 1223,
      "variety": 1224,
      "common": 1225,
      "denied": 1226,
      "karol": 1227,
      "satisf": 1228,
      "baz": 1229,
      "door": 1230,
      "fake": 1231,
      "gen": 1232,
      "##ne": 1233,
      "##gr": 1234,
      "##rong": 1235,
      "##uff": 1236,
      "ref": 1237,
      "comple": 1238,
      "##etic": 1239,
      "friends": 1240,
      "ask": 1241,
      "hand": 1242,
      "shop": 1243,
      "##ched": 1244,
      "##kets": 1245,
      "conf": 1246,
      "bathrooms": 1247,
      "easily": 1248,
      "tea": 1249,
      "paid": 1250,
      "consid": 1251,
      "##tanding": 1252,
      "photos": 1253,
      "card": 1254,
      "end": 1255,
      "ele": 1256,
      "found": 1257,
      "mom": 1258,
      "nm": 1259,
      "##au": 1260,
      "##bs": 1261,
      "##ately": 1262,
      "ret": 1263,
      "prime": 1264,
      "delight": 1265,
      "truly": 1266,
      "##pped": 1267,
      "enjoyable": 1268,
      "couldnt": 1269,
      "accommodation": 1270,
      "##ointed": 1271,
      "##location": 1272,
      "affordable": 1273,
      "may": 1274,
      "ty": 1275,
      "##ov": 1276,
      "##ric": 1277,
      "##iance": 1278,
      "##imentary": 1279,
      "##up": 1280,
      "##ates": 1281,
      "##reet": 1282,
      "##ational": 1283,
      "frid": 1284,
      "##form": 1285,
      "##fortable": 1286,
      "change": 1287,
      "lift": 1288,
      "properly": 1289,
      "itself": 1290,
      "times": 1291,
      "visiting": 1292,
      "okay": 1293,
      "attention": 1294,
      "office": 1295,
      "lugg": 1296,
      "responsive": 1297,
      "basic": 1298,
      "ensure": 1299,
      "fridge": 1300,
      "cen": 1301,
      "gave": 1302,
      "men": 1303,
      "mis": 1304,
      "pick": 1305,
      "##ub": 1306,
      "##most": 1307,
      "##tail": 1308,
      "##inen": 1309,
      "##orta": 1310,
      "##read": 1311,
      "##eness": 1312,
      "##ouble": 1313,
      "##idy": 1314,
      "once": 1315,
      "spot": 1316,
      "offer": 1317,
      "travell": 1318,
      "travelers": 1319,
      "esta": 1320,
      "seen": 1321,
      "charge": 1322,
      "enter": 1323,
      "including": 1324,
      "doesnt": 1325,
      "central": 1326,
      "wait": 1327,
      "luggage": 1328,
      "cor": 1329,
      "cost": 1330,
      "down": 1331,
      "el": 1332,
      "gl": 1333,
      "hard": 1334,
      "id": 1335,
      "nf": 1336,
      "sound": 1337,
      "side": 1338,
      "tidy": 1339,
      "##ru": 1340,
      "##line": 1341,
      "##bby": 1342,
      "##que": 1343,
      "##ase": 1344,
      "##less": 1345,
      "##ists": 1346,
      "##ulous": 1347,
      "almost": 1348,
      "sugg": 1349,
      "she": 1350,
      "dem": 1351,
      "still": 1352,
      "adv": 1353,
      "please": 1354,
      "entire": 1355,
      "own": 1356,
      "second": 1357,
      "outstanding": 1358,
      "fabulous": 1359,
      "complain": 1360,
      "complimentary": 1361,
      "surpr": 1362,
      "issue": 1363,
      "called": 1364,
      "connect": 1365,
      "problem": 1366,
      "exceeded": 1367,
      "consider": 1368,
      "moment": 1369,
      "center": 1370,
      "put": 1371,
      "roo": 1372,
      "##app": 1373,
      "##ipped": 1374,
      "##yo": 1375,
      "##ber": 1376,
      "locality": 1377,
      "online": 1378,
      "helpfull": 1379,
      "acc": 1380,
      "living": 1381,
      "resid": 1382,
      "detail": 1383,
      "heart": 1384,
      "prep": 1385,
      "coff": 1386,
      "requests": 1387,
      "whole": 1388,
      "ambiance": 1389,
      "wanted": 1390,
      "drin": 1391,
      "payment": 1392,
      "response": 1393,
      "actually": 1394,
      "expected": 1395,
      "noisy": 1396,
      "ap": 1397,
      "able": 1398,
      "bag": 1399,
      "emp": 1400,
      "fi": 1401,
      "fin": 1402,
      "hu": 1403,
      "him": 1404,
      "mall": 1405,
      "n2": 1406,
      "nfood": 1407,
      "oyo": 1408,
      "sing": 1409,
      "swe": 1410,
      "und": 1411,
      "##em": 1412,
      "##ri": 1413,
      "##rible": 1414,
      "##ired": 1415,
      "##xim": 1416,
      "##ls": 1417,
      "##li": 1418,
      "##fer": 1419,
      "##ature": 1420,
      "##ang": 1421,
      "##als": 1422,
      "inv": 1423,
      "into": 1424,
      "exact": 1425,
      "##thday": 1426,
      "proxim": 1427,
      "spread": 1428,
      "sheets": 1429,
      "worked": 1430,
      "class": 1431,
      "use": 1432,
      "##ized": 1433,
      "##quipped": 1434,
      "perfectly": 1435,
      "impec": 1436,
      "looked": 1437,
      "lots": 1438,
      "driver": 1439,
      "situ": 1440,
      "international": 1441,
      "mentioned": 1442,
      "decorated": 1443,
      "birthday": 1444,
      "gener": 1445,
      "shops": 1446,
      "col": 1447,
      "hor": 1448,
      "light": 1449,
      "mind": 1450,
      "plent": 1451,
      "ser": 1452,
      "##rs": 1453,
      "##iya": 1454,
      "##erg": 1455,
      "rep": 1456,
      "inform": 1457,
      "process": 1458,
      "choo": 1459,
      "organ": 1460,
      "stuff": 1461,
      "anything": 1462,
      "going": 1463,
      "look": 1464,
      "##actory": 1465,
      "appreciated": 1466,
      "pictures": 1467,
      "neighbor": 1468,
      "coffee": 1469,
      "impecc": 1470,
      "12": 1471,
      "aut": 1472,
      "cos": 1473,
      "double": 1474,
      "jas": 1475,
      "non": 1476,
      "nre": 1477,
      "rs": 1478,
      "turn": 1479,
      "vill": 1480,
      "##row": 1481,
      "##sible": 1482,
      "wasnt": 1483,
      "##reen": 1484,
      "##ings": 1485,
      "lobby": 1486,
      "priv": 1487,
      "##verall": 1488,
      "plan": 1489,
      "meet": 1490,
      "checking": 1491,
      "saf": 1492,
      "##ppos": 1493,
      "priced": 1494,
      "willing": 1495,
      "upgr": 1496,
      "someone": 1497,
      "arrange": 1498,
      "cold": 1499,
      "impress": 1500,
      "difficul": 1501,
      "tourist": 1502,
      "pahar": 1503,
      "secure": 1504,
      "ordered": 1505,
      "guys": 1506,
      "included": 1507,
      "came": 1508,
      "issu": 1509,
      "##medi": 1510,
      "##blish": 1511,
      "luxurious": 1512,
      "allowed": 1513,
      "##tenance": 1514,
      "towels": 1515,
      "type": 1516,
      "menu": 1517,
      "huge": 1518,
      "single": 1519,
      "sweet": 1520,
      "exactly": 1521,
      "proximity": 1522,
      "choose": 1523,
      "neighborhood": 1524,
      "bot": 1525,
      "face": 1526,
      "ke": 1527,
      "ket": 1528,
      "nic": 1529,
      "nlocation": 1530,
      "ph": 1531,
      "park": 1532,
      "poin": 1533,
      "vib": 1534,
      "##night": 1535,
      "##ale": 1536,
      "##ck": 1537,
      "##ux": 1538,
      "##ved": 1539,
      "##mor": 1540,
      "##tage": 1541,
      "##rect": 1542,
      "##ready": 1543,
      "rece": 1544,
      "already": 1545,
      "##ety": 1546,
      "##the": 1547,
      "delux": 1548,
      "##amp": 1549,
      "##rooms": 1550,
      "##agar": 1551,
      "extend": 1552,
      "nthey": 1553,
      "cancel": 1554,
      "immedi": 1555,
      "##ably": 1556,
      "##000": 1557,
      "looking": 1558,
      "leave": 1559,
      "reached": 1560,
      "247": 1561,
      "count": 1562,
      "except": 1563,
      "##ganj": 1564,
      "specious": 1565,
      "return": 1566,
      "establish": 1567,
      "horrible": 1568,
      "bottle": 1569,
      "kettle": 1570,
      "bro": 1571,
      "green": 1572,
      "hom": 1573,
      "lou": 1574,
      "pow": 1575,
      "rude": 1576,
      "sin": 1577,
      "vi": 1578,
      "##aff": 1579,
      "##aud": 1580,
      "##gest": 1581,
      "##vious": 1582,
      "##ym": 1583,
      "##dle": 1584,
      "##be": 1585,
      "three": 1586,
      "think": 1587,
      "##tact": 1588,
      "##ina": 1589,
      "along": 1590,
      "amount": 1591,
      "sho": 1592,
      "##ustle": 1593,
      "bedsh": 1594,
      "maintenance": 1595,
      "##ively": 1596,
      "behaved": 1597,
      "visited": 1598,
      "expl": 1599,
      "nand": 1600,
      "##unning": 1601,
      "arranged": 1602,
      "charg": 1603,
      "arrival": 1604,
      "mah": 1605,
      "taken": 1606,
      "simple": 1607,
      "marina": 1608,
      "fair": 1609,
      "purp": 1610,
      "swim": 1611,
      "middle": 1612,
      "improve": 1613,
      "##augh": 1614,
      "issues": 1615,
      "deluxe": 1616,
      "bar": 1617,
      "boy": 1618,
      "cle": 1619,
      "cat": 1620,
      "due": 1621,
      "emb": 1622,
      "ho": 1623,
      "sty": 1624,
      "##na": 1625,
      "##ction": 1626,
      "##und": 1627,
      "##ken": 1628,
      "##he": 1629,
      "##ward": 1630,
      "##itude": 1631,
      "##esth": 1632,
      "##ult": 1633,
      "fraud": 1634,
      "##aded": 1635,
      "##urity": 1636,
      "##ird": 1637,
      "webs": 1638,
      "spend": 1639,
      "ash": 1640,
      "works": 1641,
      "##pping": 1642,
      "##ific": 1643,
      "managed": 1644,
      "wife": 1645,
      "required": 1646,
      "washrooms": 1647,
      "security": 1648,
      "##hotel": 1649,
      "relaxing": 1650,
      "luxury": 1651,
      "else": 1652,
      "empl": 1653,
      "fix": 1654,
      "situated": 1655,
      "plenty": 1656,
      "impeccable": 1657,
      "safety": 1658,
      "paharganj": 1659,
      "nicely": 1660,
      "broken": 1661,
      "since": 1662,
      "shopping": 1663,
      "swimming": 1664,
      "website": 1665,
      "20": 1666,
      "aer": 1667,
      "break": 1668,
      "cash": 1669,
      "dro": 1670,
      "dist": 1671,
      "equipped": 1672,
      "gir": 1673,
      "gate": 1674,
      "gym": 1675,
      "her": 1676,
      "num": 1677,
      "oppos": 1678,
      "red": 1679,
      "sar": 1680,
      "till": 1681,
      "tree": 1682,
      "##vel": 1683,
      "##low": 1684,
      "##jay": 1685,
      "##cept": 1686,
      "##itive": 1687,
      "ally": 1688,
      "##though": 1689,
      "changed": 1690,
      "wee": 1691,
      "soap": 1692,
      "manner": 1693,
      "contact": 1694,
      "saw": 1695,
      "abd": 1696,
      "bath": 1697,
      "visa": 1698,
      "previous": 1699,
      "desc": 1700,
      "kindly": 1701,
      "showing": 1702,
      "##ung": 1703,
      "welcomed": 1704,
      "importa": 1705,
      "##ftop": 1706,
      "minute": 1707,
      "ground": 1708,
      "customers": 1709,
      "start": 1710,
      "transport": 1711,
      "101": 1712,
      "standards": 1713,
      "closer": 1714,
      "windows": 1715,
      "speed": 1716,
      "satisfactory": 1717,
      "confir": 1718,
      "demand": 1719,
      "rooftop": 1720,
      "villa": 1721,
      "difficult": 1722,
      "power": 1723,
      "opposite": 1724,
      "important": 1725,
      "aesth": 1726,
      "ajay": 1727,
      "cord": 1728,
      "less": 1729,
      "ng": 1730,
      "nam": 1731,
      "nclean": 1732,
      "rates": 1733,
      "##ah": 1734,
      "##rance": 1735,
      "##sw": 1736,
      "##ique": 1737,
      "##ual": 1738,
      "##pm": 1739,
      "##pl": 1740,
      "##wise": 1741,
      "##din": 1742,
      "##light": 1743,
      "##fr": 1744,
      "##ator": 1745,
      "##orm": 1746,
      "##anj": 1747,
      "rec": 1748,
      "cha": 1749,
      "thats": 1750,
      "solo": 1751,
      "##ching": 1752,
      "street": 1753,
      "whenever": 1754,
      "tem": 1755,
      "##ibility": 1756,
      "looks": 1757,
      "giving": 1758,
      "incredible": 1759,
      "member": 1760,
      "address": 1761,
      "appreciate": 1762,
      "regul": 1763,
      "bazar": 1764,
      "miss": 1765,
      "point": 1766,
      "establishment": 1767,
      "drop": 1768,
      "aesthetic": 1769,
      "cordial": 1770,
      "cur": 1771,
      "furn": 1772,
      "ig": 1773,
      "mo": 1774,
      "mach": 1775,
      "nar": 1776,
      "none": 1777,
      "nagar": 1778,
      "pill": 1779,
      "pass": 1780,
      "rice": 1781,
      "ve": 1782,
      "yes": 1783,
      "##og": 1784,
      "##ear": 1785,
      "##ger": 1786,
      "##race": 1787,
      "##ries": 1788,
      "##cy": 1789,
      "##staff": 1790,
      "##uk": 1791,
      "##uit": 1792,
      "##bo": 1793,
      "##fa": 1794,
      "##ele": 1795,
      "##atively": 1796,
      "##ene": 1797,
      "##ens": 1798,
      "forward": 1799,
      "alone": 1800,
      "although": 1801,
      "##acks": 1802,
      "hair": 1803,
      "suit": 1804,
      "answ": 1805,
      "memor": 1806,
      "congest": 1807,
      "stree": 1808,
      "strong": 1809,
      "anyone": 1810,
      "disc": 1811,
      "disapp": 1812,
      "mins": 1813,
      "##unch": 1814,
      "appro": 1815,
      "require": 1816,
      "otherwise": 1817,
      "##ock": 1818,
      "##ween": 1819,
      "between": 1820,
      "entrance": 1821,
      "twice": 1822,
      "relatively": 1823,
      "trains": 1824,
      "drive": 1825,
      "##ording": 1826,
      "possible": 1827,
      "positive": 1828,
      "centre": 1829,
      "commun": 1830,
      "particul": 1831,
      "assist": 1832,
      "calm": 1833,
      "internet": 1834,
      "bring": 1835,
      "regard": 1836,
      "soon": 1837,
      "designed": 1838,
      "according": 1839,
      "prepared": 1840,
      "information": 1841,
      "cosy": 1842,
      "kept": 1843,
      "phone": 1844,
      "extended": 1845,
      "immediately": 1846,
      "homely": 1847,
      "bedsheets": 1848,
      "purpose": 1849,
      "catch": 1850,
      "style": 1851,
      "number": 1852,
      "pillow": 1853,
      "congested": 1854,
      "streets": 1855,
      "bill": 1856,
      "cant": 1857,
      "case": 1858,
      "dust": 1859,
      "ear": 1860,
      "fle": 1861,
      "ive": 1862,
      "kh": 1863,
      "linen": 1864,
      "pu": 1865,
      "path": 1866,
      "si": 1867,
      "tou": 1868,
      "table": 1869,
      "wide": 1870,
      "wrong": 1871,
      "##ems": 1872,
      "##aar": 1873,
      "##ia": 1874,
      "##iable": 1875,
      "##pur": 1876,
      "##her": 1877,
      "##ren": 1878,
      "##alf": 1879,
      "##estions": 1880,
      "##osh": 1881,
      "##ical": 1882,
      "atta": 1883,
      "spent": 1884,
      "##comfortable": 1885,
      "##ourhood": 1886,
      "tried": 1887,
      "world": 1888,
      "reserv": 1889,
      "used": 1890,
      "##ush": 1891,
      "energ": 1892,
      "hosts": 1893,
      "##ivity": 1894,
      "##ody": 1895,
      "cooling": 1896,
      "attitude": 1897,
      "upto": 1898,
      "##ability": 1899,
      "##rand": 1900,
      "travelling": 1901,
      "unp": 1902,
      "covid": 1903,
      "sized": 1904,
      "send": 1905,
      "sear": 1906,
      "appointed": 1907,
      "court": 1908,
      "accommodate": 1909,
      "compared": 1910,
      "respect": 1911,
      "personal": 1912,
      "##ctric": 1913,
      "##ledge": 1914,
      "level": 1915,
      "toilets": 1916,
      "nnice": 1917,
      "deny": 1918,
      "markets": 1919,
      "topnot": 1920,
      "nbreakfast": 1921,
      "centrally": 1922,
      "closed": 1923,
      "##eys": 1924,
      "neighbourhood": 1925,
      "nrooms": 1926,
      "bazaar": 1927,
      "electric": 1928,
      "delightful": 1929,
      "travellers": 1930,
      "##ruct": 1931,
      "resident": 1932,
      "apol": 1933,
      "colle": 1934,
      "girls": 1935,
      "mannered": 1936,
      "confirm": 1937,
      "machine": 1938,
      "energy": 1939,
      "topnotch": 1940,
      "bo": 1941,
      "bloc": 1942,
      "fut": 1943,
      "hence": 1944,
      "jo": 1945,
      "la": 1946,
      "mon": 1947,
      "mil": 1948,
      "n3": 1949,
      "ren": 1950,
      "sel": 1951,
      "tar": 1952,
      "wise": 1953,
      "wish": 1954,
      "##nts": 1955,
      "##rita": 1956,
      "##sel": 1957,
      "##io": 1958,
      "##pite": 1959,
      "##min": 1960,
      "##male": 1961,
      "##body": 1962,
      "##zal": 1963,
      "these": 1964,
      "##ana": 1965,
      "int": 1966,
      "##iling": 1967,
      "commend": 1968,
      "now": 1969,
      "noverall": 1970,
      "##ura": 1971,
      "helping": 1972,
      "comforta": 1973,
      "accept": 1974,
      "life": 1975,
      "que": 1976,
      "sum": 1977,
      "sub": 1978,
      "shant": 1979,
      "##tern": 1980,
      "meal": 1981,
      "cont": 1982,
      "eng": 1983,
      "enc": 1984,
      "##ages": 1985,
      "hear": 1986,
      "fact": 1987,
      "stunning": 1988,
      "cool": 1989,
      "smell": 1990,
      "anywhere": 1991,
      "##arkable": 1992,
      "afzal": 1993,
      "newly": 1994,
      "dish": 1995,
      "flights": 1996,
      "offers": 1997,
      "travelled": 1998,
      "unh": 1999,
      "respond": 2000,
      "feeling": 2001,
      "##ope": 2002,
      "nsp": 2003,
      "trained": 2004,
      "tours": 2005,
      "##cial": 2006,
      "knowledge": 2007,
      "exceptionally": 2008,
      "nno": 2009,
      "addition": 2010,
      "assis": 2011,
      "keeping": 2012,
      "connaugh": 2013,
      "remarkable": 2014,
      "satisfied": 2015,
      "handy": 2016,
      "ensured": 2017,
      "traveller": 2018,
      "connectivity": 2019,
      "drinks": 2020,
      "upgraded": 2021,
      "explor": 2022,
      "employ": 2023,
      "abdul": 2024,
      "memorable": 2025,
      "flex": 2026,
      "renov": 2027,
      "commendable": 2028,
      "shanti": 2029,
      "connaught": 2030,
      "25": 2031,
      "cut": 2032,
      "creat": 2033,
      "cele": 2034,
      "du": 2035,
      "fit": 2036,
      "fav": 2037,
      "gud": 2038,
      "ji": 2039,
      "line": 2040,
      "mos": 2041,
      "mile": 2042,
      "nat": 2043,
      "niz": 2044,
      "om": 2045,
      "oper": 2046,
      "ru": 2047,
      "range": 2048,
      "tuk": 2049,
      "ur": 2050,
      "##nel": 2051,
      "##nge": 2052,
      "##ata": 2053,
      "##tely": 2054,
      "##sta": 2055,
      "##ik": 2056,
      "##ian": 2057,
      "##par": 2058,
      "##wor": 2059,
      "##man": 2060,
      "##br": 2061,
      "##oof": 2062,
      "##oup": 2063,
      "recent": 2064,
      "form": 2065,
      "exch": 2066,
      "neg": 2067,
      "##fully": 2068,
      "##thy": 2069,
      "##ication": 2070,
      "##urb": 2071,
      "child": 2072,
      "why": 2073,
      "spa": 2074,
      "asking": 2075,
      "plants": 2076,
      "having": 2077,
      "##rofession": 2078,
      "overnight": 2079,
      "prices": 2080,
      "nthis": 2081,
      "##iveness": 2082,
      "heav": 2083,
      "recommendations": 2084,
      "stor": 2085,
      "cook": 2086,
      "female": 2087,
      "##quit": 2088,
      "pres": 2089,
      "prem": 2090,
      "kindness": 2091,
      "unique": 2092,
      "roam": 2093,
      "accomod": 2094,
      "pleasure": 2095,
      "others": 2096,
      "decently": 2097,
      "chef": 2098,
      "##ygienic": 2099,
      "left": 2100,
      "paper": 2101,
      "accessibility": 2102,
      "thought": 2103,
      "town": 2104,
      "##tings": 2105,
      "transfer": 2106,
      "caf": 2107,
      "requested": 2108,
      "interiors": 2109,
      "caring": 2110,
      "choices": 2111,
      "scam": 2112,
      "completely": 2113,
      "nmr": 2114,
      "pickup": 2115,
      "suggest": 2116,
      "suggestions": 2117,
      "drinking": 2118,
      "bags": 2119,
      "##ription": 2120,
      "vibe": 2121,
      "lounge": 2122,
      "particularly": 2123,
      "pathetic": 2124,
      "respectful": 2125,
      "residential": 2126,
      "future": 2127,
      "exploring": 2128,
      "celebr": 2129,
      "nizam": 2130,
      "##rofessional": 2131,
      "11": 2132,
      "bel": 2133,
      "breat": 2134,
      "bha": 2135,
      "bustle": 2136,
      "ce": 2137,
      "cer": 2138,
      "cab": 2139,
      "hrs": 2140,
      "ir": 2141,
      "k3": 2142,
      "live": 2143,
      "lunch": 2144,
      "mus": 2145,
      "nc": 2146,
      "nl": 2147,
      "pm": 2148,
      "rent": 2149,
      "son": 2150,
      "sak": 2151,
      "wet": 2152,
      "wall": 2153,
      "##over": 2154,
      "##ned": 2155,
      "##afe": 2156,
      "##tel": 2157,
      "##tun": 2158,
      "##tress": 2159,
      "##rain": 2160,
      "##ram": 2161,
      "##round": 2162,
      "##self": 2163,
      "##ug": 2164,
      "##uz": 2165,
      "##ves": 2166,
      "##pect": 2167,
      "##my": 2168,
      "##mer": 2169,
      "##la": 2170,
      "##ja": 2171,
      "##30": 2172,
      "##tation": 2173,
      "##elet": 2174,
      "##orts": 2175,
      "wash": 2176,
      "##res": 2177,
      "##ane": 2178,
      "##anks": 2179,
      "##antage": 2180,
      "##iture": 2181,
      "real": 2182,
      "##esh": 2183,
      "##ilities": 2184,
      "locations": 2185,
      "exist": 2186,
      "often": 2187,
      "##ection": 2188,
      "##icing": 2189,
      "##ided": 2190,
      "##acy": 2191,
      "##ervice": 2192,
      "##elpful": 2193,
      "items": 2194,
      "##ayed": 2195,
      "chose": 2196,
      "event": 2197,
      "##ste": 2198,
      "##ighly": 2199,
      "##vers": 2200,
      "##veral": 2201,
      "true": 2202,
      "traff": 2203,
      "meals": 2204,
      "##amos": 2205,
      "word": 2206,
      "##ola": 2207,
      "const": 2208,
      "stations": 2209,
      "arch": 2210,
      "nthank": 2211,
      "##ived": 2212,
      "stress": 2213,
      "cannot": 2214,
      "prefer": 2215,
      "beautifully": 2216,
      "nahi": 2217,
      "several": 2218,
      "##aps": 2219,
      "cheated": 2220,
      "happen": 2221,
      "tourists": 2222,
      "fully": 2223,
      "worthy": 2224,
      "group": 2225,
      "24h": 2226,
      "maj": 2227,
      "surround": 2228,
      "taking": 2229,
      "actual": 2230,
      "nne": 2231,
      "makes": 2232,
      "##pees": 2233,
      "##ather": 2234,
      "trying": 2235,
      "couples": 2236,
      "terrace": 2237,
      "speak": 2238,
      "listed": 2239,
      "mattress": 2240,
      "remot": 2241,
      "specific": 2242,
      "spotless": 2243,
      "ide": 2244,
      "owners": 2245,
      "surprise": 2246,
      "surprised": 2247,
      "under": 2248,
      "serve": 2249,
      "nrecommend": 2250,
      "privacy": 2251,
      "cancelled": 2252,
      "embass": 2253,
      "disturb": 2254,
      "description": 2255,
      "regular": 2256,
      "answer": 2257,
      "disappointed": 2258,
      "requirements": 2259,
      "regarding": 2260,
      "pillows": 2261,
      "touch": 2262,
      "attached": 2263,
      "unprofessional": 2264,
      "##ructure": 2265,
      "comfortab": 2266,
      "dishes": 2267,
      "unhygienic": 2268,
      "knowledgeable": 2269,
      "additional": 2270,
      "natur": 2271,
      "omelet": 2272,
      "heavy": 2273,
      "##quito": 2274,
      "saket": 2275,
      "##tunately": 2276,
      "traffic": 2277,
      "bes": 2278,
      "bhi": 2279,
      "fur": 2280,
      "ge": 2281,
      "goo": 2282,
      "gem": 2283,
      "mult": 2284,
      "np": 2285,
      "nal": 2286,
      "nso": 2287,
      "norm": 2288,
      "oc": 2289,
      "oas": 2290,
      "pita": 2291,
      "ra": 2292,
      "rud": 2293,
      "sil": 2294,
      "tom": 2295,
      "tal": 2296,
      "tell": 2297,
      "taj": 2298,
      "wer": 2299,
      "wont": 2300,
      "yog": 2301,
      "year": 2302,
      "##ny": 2303,
      "##equ": 2304,
      "##eign": 2305,
      "##gu": 2306,
      "##gant": 2307,
      "##set": 2308,
      "##ier": 2309,
      "##iple": 2310,
      "##uc": 2311,
      "##uch": 2312,
      "##vice": 2313,
      "##ka": 2314,
      "##porta": 2315,
      "##hen": 2316,
      "##lery": 2317,
      "##lish": 2318,
      "##bably": 2319,
      "those": 2320,
      "third": 2321,
      "##inking": 2322,
      "##ats": 2323,
      "##omet": 2324,
      "##iti": 2325,
      "##ali": 2326,
      "foreign": 2327,
      "##ilt": 2328,
      "exec": 2329,
      "exam": 2330,
      "fruit": 2331,
      "altern": 2332,
      "##ther": 2333,
      "probably": 2334,
      "foods": 2335,
      "behi": 2336,
      "##ously": 2337,
      "##iendly": 2338,
      "everywhere": 2339,
      "sun": 2340,
      "confortable": 2341,
      "##used": 2342,
      "##ssure": 2343,
      "stop": 2344,
      "##ize": 2345,
      "pressure": 2346,
      "higher": 2347,
      "bigger": 2348,
      "getting": 2349,
      "arrive": 2350,
      "adequ": 2351,
      "goes": 2352,
      "uns": 2353,
      "uncomfortable": 2354,
      "##ummy": 2355,
      "personnel": 2356,
      "conveniently": 2357,
      "views": 2358,
      "mostly": 2359,
      "reachable": 2360,
      "conditioner": 2361,
      "conditioning": 2362,
      "says": 2363,
      "decided": 2364,
      "transporta": 2365,
      "sitting": 2366,
      "hostels": 2367,
      "takes": 2368,
      "##blic": 2369,
      "nhelpful": 2370,
      "opened": 2371,
      "improved": 2372,
      "ended": 2373,
      "nmy": 2374,
      "##inental": 2375,
      "advice": 2376,
      "considering": 2377,
      "impressed": 2378,
      "received": 2379,
      "counter": 2380,
      "mahal": 2381,
      "improvement": 2382,
      "boys": 2383,
      "hold": 2384,
      "previously": 2385,
      "1015": 2386,
      "ngreat": 2387,
      "temple": 2388,
      "narrow": 2389,
      "approach": 2390,
      "communication": 2391,
      "public": 2392,
      "silent": 2393,
      "##selves": 2394,
      "employe": 2395,
      "flexible": 2396,
      "cutlery": 2397,
      "rupees": 2398,
      "recently": 2399,
      "negative": 2400,
      "music": 2401,
      "further": 2402,
      "occ": 2403,
      "oasis": 2404,
      "adequate": 2405,
      "transportation": 2406,
      "05": 2407,
      "100": 2408,
      "34": 2409,
      "cr": 2410,
      "crow": 2411,
      "f9": 2412,
      "fun": 2413,
      "gor": 2414,
      "god": 2415,
      "hon": 2416,
      "hes": 2417,
      "hustle": 2418,
      "ka": 2419,
      "km": 2420,
      "last": 2421,
      "lane": 2422,
      "mag": 2423,
      "mov": 2424,
      "nu": 2425,
      "n4": 2426,
      "nature": 2427,
      "opt": 2428,
      "pack": 2429,
      "pamp": 2430,
      "sy": 2431,
      "sou": 2432,
      "sent": 2433,
      "sights": 2434,
      "sign": 2435,
      "slight": 2436,
      "tel": 2437,
      "treat": 2438,
      "vin": 2439,
      "xa": 2440,
      "yet": 2441,
      "##overall": 2442,
      "##ew": 2443,
      "##ties": 2444,
      "##gress": 2445,
      "##rib": 2446,
      "##ctions": 2447,
      "##ume": 2448,
      "##val": 2449,
      "##ps": 2450,
      "##pal": 2451,
      "##hal": 2452,
      "##house": 2453,
      "##hli": 2454,
      "##mine": 2455,
      "##tant": 2456,
      "##ced": 2457,
      "##any": 2458,
      "forget": 2459,
      "low": 2460,
      "inste": 2461,
      "##aring": 2462,
      "proof": 2463,
      "aloo": 2464,
      "##ech": 2465,
      "##econd": 2466,
      "net": 2467,
      "neas": 2468,
      "necess": 2469,
      "nevery": 2470,
      "##irs": 2471,
      "availability": 2472,
      "ones": 2473,
      "reviews": 2474,
      "spark": 2475,
      "##comend": 2476,
      "allot": 2477,
      "##owing": 2478,
      "deliver": 2479,
      "hauz": 2480,
      "amrita": 2481,
      "suite": 2482,
      "##geous": 2483,
      "shah": 2484,
      "social": 2485,
      "##amazing": 2486,
      "books": 2487,
      "deal": 2488,
      "dehli": 2489,
      "art": 2490,
      "##ager": 2491,
      "##uddin": 2492,
      "valu": 2493,
      "smel": 2494,
      "polit": 2495,
      "evening": 2496,
      "express": 2497,
      "images": 2498,
      "superior": 2499,
      "cooperation": 2500,
      "mini": 2501,
      "minim": 2502,
      "##tains": 2503,
      "famil": 2504,
      "unable": 2505,
      "esc": 2506,
      "interest": 2507,
      "direct": 2508,
      "charming": 2509,
      "entry": 2510,
      "professionally": 2511,
      "drink": 2512,
      "knew": 2513,
      "mrp": 2514,
      "posh": 2515,
      "promised": 2516,
      "various": 2517,
      "transit": 2518,
      "slept": 2519,
      "restric": 2520,
      "quickly": 2521,
      "##ountered": 2522,
      "##mpura": 2523,
      "problems": 2524,
      "noises": 2525,
      "1500": 2526,
      "midnight": 2527,
      "cards": 2528,
      "maybe": 2529,
      "spots": 2530,
      "corner": 2531,
      "correct": 2532,
      "glass": 2533,
      "sounds": 2534,
      "sheet": 2535,
      "unders": 2536,
      "general": 2537,
      "minded": 2538,
      "auto": 2539,
      "jasola": 2540,
      "jasmine": 2541,
      "arrangements": 2542,
      "charging": 2543,
      "missing": 2544,
      "furniture": 2545,
      "searching": 2546,
      "apollo": 2547,
      "job": 2548,
      "milk": 2549,
      "select": 2550,
      "interv": 2551,
      "encountered": 2552,
      "assistance": 2553,
      "mosquito": 2554,
      "exchange": 2555,
      "cafes": 2556,
      "nizamuddin": 2557,
      "ceiling": 2558,
      "stressful": 2559,
      "happened": 2560,
      "remote": 2561,
      "ideal": 2562,
      "embassy": 2563,
      "disturbance": 2564,
      "comfortably": 2565,
      "multiple": 2566,
      "pitampura": 2567,
      "silance": 2568,
      "execut": 2569,
      "behind": 2570,
      "employees": 2571,
      "crowd": 2572,
      "gorgeous": 2573,
      "hesita": 2574,
      "pamposh": 2575,
      "south": 2576,
      "slightly": 2577,
      "xa0": 2578,
      "instead": 2579,
      "sparkling": 2580,
      "1l": 2581,
      "ben": 2582,
      "ban": 2583,
      "bell": 2584,
      "bung": 2585,
      "cast": 2586,
      "em": 2587,
      "fol": 2588,
      "gk": 2589,
      "gent": 2590,
      "ganj": 2591,
      "grand": 2592,
      "geys": 2593,
      "hid": 2594,
      "ja": 2595,
      "jam": 2596,
      "king": 2597,
      "kail": 2598,
      "later": 2599,
      "move": 2600,
      "nst": 2601,
      "pare": 2602,
      "rain": 2603,
      "ride": 2604,
      "run": 2605,
      "rating": 2606,
      "sn": 2607,
      "sen": 2608,
      "somet": 2609,
      "tic": 2610,
      "taps": 2611,
      "uber": 2612,
      "wr": 2613,
      "yummy": 2614,
      "##nif": 2615,
      "##eet": 2616,
      "##tt": 2617,
      "##ti": 2618,
      "##iy": 2619,
      "##iant": 2620,
      "##uj": 2621,
      "##xcellent": 2622,
      "##ply": 2623,
      "##hta": 2624,
      "##hat": 2625,
      "##den": 2626,
      "##ding": 2627,
      "##ll": 2628,
      "##fo": 2629,
      "##fter": 2630,
      "##era": 2631,
      "##eres": 2632,
      "##ooking": 2633,
      "##athroom": 2634,
      "staf": 2635,
      "##ret": 2636,
      "##rections": 2637,
      "##ents": 2638,
      "##anth": 2639,
      "##omen": 2640,
      "toast": 2641,
      "##alow": 2642,
      "##ising": 2643,
      "##isite": 2644,
      "##ishing": 2645,
      "##lying": 2646,
      "##icen": 2647,
      "##icent": 2648,
      "##esy": 2649,
      "initi": 2650,
      "locat": 2651,
      "exqu": 2652,
      "prior": 2653,
      "pricing": 2654,
      "neare": 2655,
      "nexcellent": 2656,
      "##veen": 2657,
      "notch": 2658,
      "##icks": 2659,
      "##urt": 2660,
      "##ither": 2661,
      "##irr": 2662,
      "##formed": 2663,
      "chand": 2664,
      "##ster": 2665,
      "friendliness": 2666,
      "##ients": 2667,
      "spo": 2668,
      "aspect": 2669,
      "among": 2670,
      "action": 2671,
      "everyday": 2672,
      "trust": 2673,
      "ann": 2674,
      "##hipal": 2675,
      "##kend": 2676,
      "bedroom": 2677,
      "##rol": 2678,
      "timely": 2679,
      "behalf": 2680,
      "##ateful": 2681,
      "heat": 2682,
      "closeby": 2683,
      "##izing": 2684,
      "guide": 2685,
      "flow": 2686,
      "managers": 2687,
      "ease": 2688,
      "nafter": 2689,
      "neatly": 2690,
      "adj": 2691,
      "unfa": 2692,
      "hass": 2693,
      "paranth": 2694,
      "directions": 2695,
      "##umar": 2696,
      "##ieties": 2697,
      "built": 2698,
      "##ocity": 2699,
      "##apan": 2700,
      "smaller": 2701,
      "lotus": 2702,
      "nsafe": 2703,
      "touris": 2704,
      "dining": 2705,
      "respons": 2706,
      "grt": 2707,
      "grateful": 2708,
      "position": 2709,
      "mahipal": 2710,
      "toiletries": 2711,
      "varieties": 2712,
      "seemed": 2713,
      "taker": 2714,
      "cafe": 2715,
      "capt": 2716,
      "simply": 2717,
      "closeness": 2718,
      "terms": 2719,
      "termin": 2720,
      "listen": 2721,
      "match": 2722,
      "scared": 2723,
      "refund": 2724,
      "elegant": 2725,
      "glad": 2726,
      "advantage": 2727,
      "connected": 2728,
      "apart": 2729,
      "finish": 2730,
      "##lier": 2731,
      "##anging": 2732,
      "useful": 2733,
      "lighting": 2734,
      "private": 2735,
      "planned": 2736,
      "impressive": 2737,
      "bottled": 2738,
      "loud": 2739,
      "charges": 2740,
      "ashram": 2741,
      "aerocity": 2742,
      "treebo": 2743,
      "week": 2744,
      "1010": 2745,
      "##friendly": 2746,
      "veg": 2747,
      "earlier": 2748,
      "reservation": 2749,
      "courtesy": 2750,
      "confirmation": 2751,
      "block": 2752,
      "continental": 2753,
      "english": 2754,
      "children": 2755,
      "present": 2756,
      "breathta": 2757,
      "iron": 2758,
      "walls": 2759,
      "major": 2760,
      "mattresses": 2761,
      "natural": 2762,
      "omelette": 2763,
      "beside": 2764,
      "rudely": 2765,
      "yogurt": 2766,
      "alternative": 2767,
      "honest": 2768,
      "magnif": 2769,
      "package": 2770,
      "##value": 2771,
      "necessary": 2772,
      "delivered": 2773,
      "directly": 2774,
      "interview": 2775,
      "bungalow": 2776,
      "castle": 2777,
      "follow": 2778,
      "geyser": 2779,
      "hidden": 2780,
      "kailash": 2781,
      "snacks": 2782,
      "tickets": 2783,
      "initially": 2784,
      "exquisite": 2785,
      "nearest": 2786,
      "unfair": 2787,
      "mahipalpur": 2788,
      "breathtaking": 2789,
      "magnificent": 2790,
      "13": 2791,
      "40": 2792,
      "bab": 2793,
      "bank": 2794,
      "cu": 2795,
      "cir": 2796,
      "cam": 2797,
      "cake": 2798,
      "cred": 2799,
      "cup": 2800,
      "ded": 2801,
      "dut": 2802,
      "dry": 2803,
      "daugh": 2804,
      "dorm": 2805,
      "ed": 2806,
      "eur": 2807,
      "eater": 2808,
      "eating": 2809,
      "eager": 2810,
      "either": 2811,
      "foo": 2812,
      "four": 2813,
      "greet": 2814,
      "hi": 2815,
      "hol": 2816,
      "hope": 2817,
      "jun": 2818,
      "ki": 2819,
      "kumar": 2820,
      "ll": 2821,
      "lights": 2822,
      "mb": 2823,
      "mal": 2824,
      "nac": 2825,
      "nall": 2826,
      "nch": 2827,
      "nhotel": 2828,
      "ob": 2829,
      "pan": 2830,
      "pal": 2831,
      "pac": 2832,
      "post": 2833,
      "running": 2834,
      "rather": 2835,
      "sk": 2836,
      "sad": 2837,
      "site": 2838,
      "unt": 2839,
      "vac": 2840,
      "vale": 2841,
      "##ok": 2842,
      "##oj": 2843,
      "##ole": 2844,
      "##oid": 2845,
      "##ners": 2846,
      "##ek": 2847,
      "##ex": 2848,
      "##aw": 2849,
      "##aily": 2850,
      "##time": 2851,
      "##gle": 2852,
      "##gage": 2853,
      "##ring": 2854,
      "##son": 2855,
      "##sary": 2856,
      "##vator": 2857,
      "##pical": 2858,
      "##hit": 2859,
      "##how": 2860,
      "##you": 2861,
      "##win": 2862,
      "##mit": 2863,
      "##mac": 2864,
      "##main": 2865,
      "##breakfast": 2866,
      "##jun": 2867,
      "##12": 2868,
      "##15": 2869,
      "##ero": 2870,
      "thor": 2871,
      "theres": 2872,
      "##eless": 2873,
      "##ini": 2874,
      "##ley": 2875,
      "##lequipped": 2876,
      "##atisf": 2877,
      "##orech": 2878,
      "waste": 2879,
      "##otel": 2880,
      "##ening": 2881,
      "##ency": 2882,
      "##ani": 2883,
      "##iting": 2884,
      "##itect": 2885,
      "##ions": 2886,
      "##iss": 2887,
      "##ises": 2888,
      "##ese": 2889,
      "inr": 2890,
      "infr": 2891,
      "##arr": 2892,
      "##arter": 2893,
      "locate": 2894,
      "##ilst": 2895,
      "##ieter": 2896,
      "cleaner": 2897,
      "cleanness": 2898,
      "excel": 2899,
      "##ulate": 2900,
      "alley": 2901,
      "##perature": 2902,
      "##ether": 2903,
      "##ada": 2904,
      "##they": 2905,
      "##acial": 2906,
      "##acilities": 2907,
      "##astructure": 2908,
      "chill": 2909,
      "chance": 2910,
      "whate": 2911,
      "whilst": 2912,
      "whether": 2913,
      "##aces": 2914,
      "wellequipped": 2915,
      "plans": 2916,
      "myself": 2917,
      "quarter": 2918,
      "quieter": 2919,
      "##ours": 2920,
      "supp": 2921,
      "shw": 2922,
      "shared": 2923,
      "shamp": 2924,
      "sol": 2925,
      "soft": 2926,
      "##che": 2927,
      "##amb": 2928,
      "##amless": 2929,
      "properties": 2930,
      "##illiant": 2931,
      "bedrooms": 2932,
      "dece": 2933,
      "deep": 2934,
      "clock": 2935,
      "using": 2936,
      "usually": 2937,
      "conc": 2938,
      "##uss": 2939,
      "sab": 2940,
      "amazingly": 2941,
      "maintain": 2942,
      "arjun": 2943,
      "nthere": 2944,
      "nthanks": 2945,
      "##ivating": 2946,
      "receptionists": 2947,
      "provides": 2948,
      "##iger": 2949,
      "orient": 2950,
      "stinking": 2951,
      "##ures": 2952,
      "agra": 2953,
      "cooked": 2954,
      "feature": 2955,
      "##ift": 2956,
      "##oughly": 2957,
      "guard": 2958,
      "despite": 2959,
      "displ": 2960,
      "somebody": 2961,
      "somehow": 2962,
      "arranging": 2963,
      "unfor": 2964,
      "cock": 2965,
      "covers": 2966,
      "##tless": 2967,
      "seat": 2968,
      "seamless": 2969,
      "apporech": 2970,
      "buy": 2971,
      "##ished": 2972,
      "relie": 2973,
      "reliable": 2974,
      "whats": 2975,
      "luck": 2976,
      "attentiveness": 2977,
      "pleasantly": 2978,
      "difference": 2979,
      "orders": 2980,
      "maple": 2981,
      "toward": 2982,
      "taxis": 2983,
      "sites": 2984,
      "suraj": 2985,
      "seeing": 2986,
      "active": 2987,
      "nnot": 2988,
      "promptly": 2989,
      "carry": 2990,
      "##haw": 2991,
      "nbut": 2992,
      "relaxed": 2993,
      "fame": 2994,
      "nhighly": 2995,
      "decoration": 2996,
      "nwhen": 2997,
      "setting": 2998,
      "refuse": 2999,
      "typical": 3000,
      "complaints": 3001,
      "roof": 3002,
      "account": 3003,
      "details": 3004,
      "baggage": 3005,
      "finally": 3006,
      "invoice": 3007,
      "generator": 3008,
      "colon": 3009,
      "serious": 3010,
      "organized": 3011,
      "upgrade": 3012,
      "faces": 3013,
      "vibes": 3014,
      "receive": 3015,
      "country": 3016,
      "vik": 3017,
      "clear": 3018,
      "spending": 3019,
      "202": 3020,
      "aero": 3021,
      "weekend": 3022,
      "describ": 3023,
      "demanded": 3024,
      "difficulties": 3025,
      "reccomend": 3026,
      "chai": 3027,
      "temperature": 3028,
      "furnished": 3029,
      "igi": 3030,
      "suited": 3031,
      "bringing": 3032,
      "personalized": 3033,
      "collection": 3034,
      "month": 3035,
      "responded": 3036,
      "##opean": 3037,
      "renovation": 3038,
      "formal": 3039,
      "accomodation": 3040,
      "celebrated": 3041,
      "below": 3042,
      "bhaiya": 3043,
      "architect": 3044,
      "nnext": 3045,
      "google": 3046,
      "nalso": 3047,
      "years": 3048,
      "example": 3049,
      "unsatisf": 3050,
      "godwin": 3051,
      "moved": 3052,
      "nuke": 3053,
      "syst": 3054,
      "networ": 3055,
      "neasily": 3056,
      "neverything": 3057,
      "shahine": 3058,
      "understand": 3059,
      "executive": 3060,
      "crowded": 3061,
      "something": 3062,
      "##ickshaw": 3063,
      "captivating": 3064,
      "terminal": 3065,
      "circ": 3066,
      "credit": 3067,
      "duty": 3068,
      "daughter": 3069,
      "european": 3070,
      "eateries": 3071,
      "greeted": 3072,
      "llam": 3073,
      "malv": 3074,
      "valet": 3075,
      "##maculate": 3076,
      "thoroughly": 3077,
      "infrastructure": 3078,
      "whatever": 3079,
      "shampoo": 3080,
      "oriented": 3081,
      "apporechble": 3082,
      "described": 3083,
      "14": 3084,
      "16": 3085,
      "1000": 3086,
      "2nd": 3087,
      "3r": 3088,
      "700": 3089,
      "ahe": 3090,
      "bh": 3091,
      "cul": 3092,
      "dw": 3093,
      "der": 3094,
      "dest": 3095,
      "daily": 3096,
      "equ": 3097,
      "fil": 3098,
      "gst": 3099,
      "gated": 3100,
      "gaff": 3101,
      "hy": 3102,
      "hind": 3103,
      "half": 3104,
      "joy": 3105,
      "kid": 3106,
      "key": 3107,
      "kuch": 3108,
      "lack": 3109,
      "land": 3110,
      "licen": 3111,
      "mas": 3112,
      "might": 3113,
      "mater": 3114,
      "mirr": 3115,
      "nin": 3116,
      "nav": 3117,
      "pas": 3118,
      "pagar": 3119,
      "pock": 3120,
      "rom": 3121,
      "round": 3122,
      "roy": 3123,
      "rach": 3124,
      "raj": 3125,
      "ranj": 3126,
      "sav": 3127,
      "sach": 3128,
      "sched": 3129,
      "tata": 3130,
      "ver": 3131,
      "ven": 3132,
      "wi": 3133,
      "ward": 3134,
      "women": 3135,
      "zero": 3136,
      "##nice": 3137,
      "##ea": 3138,
      "##eas": 3139,
      "##aid": 3140,
      "##tub": 3141,
      "##train": 3142,
      "##gali": 3143,
      "##ral": 3144,
      "##right": 3145,
      "##service": 3146,
      "##iff": 3147,
      "##iest": 3148,
      "##ium": 3149,
      "##ule": 3150,
      "##uven": 3151,
      "##vis": 3152,
      "##x7": 3153,
      "##pat": 3154,
      "##ptable": 3155,
      "##has": 3156,
      "##was": 3157,
      "##de": 3158,
      "##dy": 3159,
      "##date": 3160,
      "##mark": 3161,
      "##looking": 3162,
      "##fit": 3163,
      "##juven": 3164,
      "##10": 3165,
      "##20": 3166,
      "##erage": 3167,
      "tha": 3168,
      "thik": 3169,
      "thug": 3170,
      "##ndry": 3171,
      "##tar": 3172,
      "##tane": 3173,
      "##asts": 3174,
      "##asome": 3175,
      "##asures": 3176,
      "##inue": 3177,
      "##leg": 3178,
      "##least": 3179,
      "##ato": 3180,
      "##ors": 3181,
      "##ceptable": 3182,
      "##ots": 3183,
      "##oti": 3184,
      "##anna": 3185,
      "##itory": 3186,
      "##ione": 3187,
      "reality": 3188,
      "repe": 3189,
      "rejuven": 3190,
      "##alle": 3191,
      "##alist": 3192,
      "fortunately": 3193,
      "lok": 3194,
      "##estion": 3195,
      "##esty": 3196,
      "inhouse": 3197,
      "info": 3198,
      "prim": 3199,
      "alright": 3200,
      "##ects": 3201,
      "neet": 3202,
      "##add": 3203,
      "##thank": 3204,
      "##icated": 3205,
      "##urning": 3206,
      "##iday": 3207,
      "##action": 3208,
      "atleast": 3209,
      "avoid": 3210,
      "average": 3211,
      "chat": 3212,
      "chick": 3213,
      "wear": 3214,
      "greatne": 3215,
      "##acement": 3216,
      "deliv": 3217,
      "plates": 3218,
      "plug": 3219,
      "suc": 3220,
      "trouble": 3221,
      "shiv": 3222,
      "solut": 3223,
      "welltrain": 3224,
      "anand": 3225,
      "measures": 3226,
      "ourselves": 3227,
      "worry": 3228,
      "##aza": 3229,
      "##azy": 3230,
      "##antity": 3231,
      "airp": 3232,
      "bedding": 3233,
      "dep": 3234,
      "club": 3235,
      "overb": 3236,
      "##ective": 3237,
      "sag": 3238,
      "abh": 3239,
      "abund": 3240,
      "##ivities": 3241,
      "##ateg": 3242,
      "bookings": 3243,
      "head": 3244,
      "step": 3245,
      "guess": 3246,
      "against": 3247,
      "##istent": 3248,
      "prefect": 3249,
      "##eeing": 3250,
      "highlight": 3251,
      "attend": 3252,
      "upon": 3253,
      "dispen": 3254,
      "showed": 3255,
      "moreover": 3256,
      "##tainly": 3257,
      "##raw": 3258,
      "traveler": 3259,
      "somewhere": 3260,
      "doz": 3261,
      "interact": 3262,
      "pleasing": 3263,
      "separ": 3264,
      "apple": 3265,
      "fans": 3266,
      "sizeable": 3267,
      "company": 3268,
      "awasome": 3269,
      "##ocked": 3270,
      "cared": 3271,
      "cheat": 3272,
      "nservice": 3273,
      "nsecond": 3274,
      "finding": 3275,
      "floors": 3276,
      "reasonably": 3277,
      "absolute": 3278,
      "responsible": 3279,
      "calls": 3280,
      "24x7": 3281,
      "maid": 3282,
      "gives": 3283,
      "inspite": 3284,
      "saying": 3285,
      "knowing": 3286,
      "efforts": 3287,
      "surely": 3288,
      "seeking": 3289,
      "activities": 3290,
      "##lock": 3291,
      "assign": 3292,
      "assume": 3293,
      "consistent": 3294,
      "doesnot": 3295,
      "marri": 3296,
      "##ashm": 3297,
      "##itar": 3298,
      "brilliant": 3299,
      "basis": 3300,
      "faul": 3301,
      "##ankaj": 3302,
      "nhad": 3303,
      "tastefully": 3304,
      "blown": 3305,
      "switch": 3306,
      "doors": 3307,
      "genu": 3308,
      "refused": 3309,
      "complete": 3310,
      "complementary": 3311,
      "handled": 3312,
      "elevator": 3313,
      "##aundry": 3314,
      "returning": 3315,
      "entering": 3316,
      "waited": 3317,
      "hardly": 3318,
      "nfr": 3319,
      "nfacilities": 3320,
      "advise": 3321,
      "complained": 3322,
      "situation": 3323,
      "repu": 3324,
      "organizing": 3325,
      "nreally": 3326,
      "arrangement": 3327,
      "##more": 3328,
      "immediate": 3329,
      "greenery": 3330,
      "via": 3331,
      "mahesh": 3332,
      "emplacement": 3333,
      "demands": 3334,
      "regularly": 3335,
      "aesthetics": 3336,
      "aesthetically": 3337,
      "khas": 3338,
      "collect": 3339,
      "blocked": 3340,
      "tariff": 3341,
      "summer": 3342,
      "renovated": 3343,
      "fittings": 3344,
      "favor": 3345,
      "favour": 3346,
      "premium": 3347,
      "roaming": 3348,
      "accomodating": 3349,
      "celebrate": 3350,
      "certainly": 3351,
      "surroundings": 3352,
      "normal": 3353,
      "talking": 3354,
      "foreigners": 3355,
      "sightseeing": 3356,
      "politeness": 3357,
      "minimalist": 3358,
      "families": 3359,
      "escort": 3360,
      "restricted": 3361,
      "corrected": 3362,
      "bengali": 3363,
      "email": 3364,
      "gentle": 3365,
      "sense": 3366,
      "hassle": 3367,
      "honestly": 3368,
      "dedicated": 3369,
      "foot": 3370,
      "until": 3371,
      "unfortunately": 3372,
      "whatsapp": 3373,
      "lucky": 3374,
      "architecture": 3375,
      "3rd": 3376,
      "ahead": 3377,
      "culture": 3378,
      "gaffar": 3379,
      "mirror": 3380,
      "pasta": 3381,
      "pocket": 3382,
      "royal": 3383,
      "rachna": 3384,
      "ranjana": 3385,
      "schedule": 3386,
      "venue": 3387,
      "##market": 3388,
      "chicken": 3389,
      "greatnext": 3390,
      "delivery": 3391,
      "solution": 3392,
      "welltrained": 3393,
      "interacted": 3394,
      "1st": 3395,
      "30": 3396,
      "300": 3397,
      "3000": 3398,
      "45": 3399,
      "au": 3400,
      "ax": 3401,
      "ant": 3402,
      "bb": 3403,
      "boom": 3404,
      "bak": 3405,
      "bout": 3406,
      "bbs": 3407,
      "bene": 3408,
      "bunch": 3409,
      "cit": 3410,
      "cere": 3411,
      "cig": 3412,
      "cater": 3413,
      "categ": 3414,
      "dor": 3415,
      "dal": 3416,
      "dren": 3417,
      "data": 3418,
      "ec": 3419,
      "foc": 3420,
      "fool": 3421,
      "gard": 3422,
      "hall": 3423,
      "hist": 3424,
      "hyg": 3425,
      "ital": 3426,
      "ill": 3427,
      "jw": 3428,
      "join": 3429,
      "japan": 3430,
      "ko": 3431,
      "kat": 3432,
      "kms": 3433,
      "kiya": 3434,
      "keys": 3435,
      "lad": 3436,
      "laj": 3437,
      "lacks": 3438,
      "lleg": 3439,
      "laundry": 3440,
      "mt": 3441,
      "mic": 3442,
      "mess": 3443,
      "mol": 3444,
      "map": 3445,
      "mass": 3446,
      "n5": 3447,
      "nid": 3448,
      "ncom": 3449,
      "nter": 3450,
      "nich": 3451,
      "nif": 3452,
      "nim": 3453,
      "nsh": 3454,
      "nto": 3455,
      "ncomfortable": 3456,
      "obl": 3457,
      "por": 3458,
      "pen": 3459,
      "pam": 3460,
      "page": 3461,
      "pip": 3462,
      "pankaj": 3463,
      "qut": 3464,
      "rk": 3465,
      "rat": 3466,
      "rac": 3467,
      "rol": 3468,
      "rickshaw": 3469,
      "squ": 3470,
      "session": 3471,
      "sens": 3472,
      "t3": 3473,
      "tub": 3474,
      "testy": 3475,
      "uk": 3476,
      "uday": 3477,
      "viv": 3478,
      "wow": 3479,
      "wanna": 3480,
      "zim": 3481,
      "##oing": 3482,
      "##off": 3483,
      "##oking": 3484,
      "##ets": 3485,
      "##aper": 3486,
      "##tv": 3487,
      "##ga": 3488,
      "##ges": 3489,
      "##rul": 3490,
      "##rif": 3491,
      "##rdin": 3492,
      "##condition": 3493,
      "##site": 3494,
      "##slow": 3495,
      "##iast": 3496,
      "##uy": 3497,
      "##uments": 3498,
      "##upi": 3499,
      "##vi": 3500,
      "##vent": 3501,
      "##kesh": 3502,
      "##po": 3503,
      "##press": 3504,
      "##preet": 3505,
      "##hon": 3506,
      "##hav": 3507,
      "##hent": 3508,
      "##hus": 3509,
      "##have": 3510,
      "##highly": 3511,
      "##ba": 3512,
      "##boo": 3513,
      "##bas": 3514,
      "##bile": 3515,
      "##bathroom": 3516,
      "##far": 3517,
      "##jad": 3518,
      "##just": 3519,
      "##jrul": 3520,
      "##zing": 3521,
      "##50": 3522,
      "##5am": 3523,
      "##ering": 3524,
      "##ercial": 3525,
      "##oon": 3526,
      "##ooja": 3527,
      "##take": 3528,
      "##els": 3529,
      "##int": 3530,
      "##inal": 3531,
      "##inations": 3532,
      "##atha": 3533,
      "##atitude": 3534,
      "##ono": 3535,
      "##ones": 3536,
      "##reception": 3537,
      "##resh": 3538,
      "##enic": 3539,
      "##anta": 3540,
      "##ankets": 3541,
      "##ffy": 3542,
      "goods": 3543,
      "staffamazing": 3544,
      "roomy": 3545,
      "read": 3546,
      "##alt": 3547,
      "##alu": 3548,
      "##althy": 3549,
      "##ism": 3550,
      "##ison": 3551,
      "##isure": 3552,
      "##iced": 3553,
      "fort": 3554,
      "force": 3555,
      "##esta": 3556,
      "hotelier": 3557,
      "##ara": 3558,
      "##arb": 3559,
      "locked": 3560,
      "##ila": 3561,
      "##iler": 3562,
      "comercial": 3563,
      "##ieve": 3564,
      "cleans": 3565,
      "exel": 3566,
      "##ull": 3567,
      "fright": 3568,
      "fried": 3569,
      "prize": 3570,
      "praw": 3571,
      "stays": 3572,
      "stayhighly": 3573,
      "##eck": 3574,
      "neem": 3575,
      "nos": 3576,
      "noid": 3577,
      "##abled": 3578,
      "##pered": 3579,
      "##aka": 3580,
      "##akh": 3581,
      "##eted": 3582,
      "##etch": 3583,
      "##oses": 3584,
      "##adi": 3585,
      "##icy": 3586,
      "##ically": 3587,
      "##ident": 3588,
      "##acin": 3589,
      "##acter": 3590,
      "##erves": 3591,
      "serving": 3592,
      "servis": 3593,
      "serves": 3594,
      "##irst": 3595,
      "progress": 3596,
      "onnce": 3597,
      "onset": 3598,
      "onsite": 3599,
      "fooding": 3600,
      "roomsvalue": 3601,
      "chang": 3602,
      "chole": 3603,
      "evident": 3604,
      "white": 3605,
      "##ienc": 3606,
      "spr": 3607,
      "sport": 3608,
      "youre": 3609,
      "friendlyfood": 3610,
      "##aint": 3611,
      "##vert": 3612,
      "##vered": 3613,
      "delayed": 3614,
      "plat": 3615,
      "myster": 3616,
      "hai": 3617,
      "havent": 3618,
      "##soever": 3619,
      "qual": 3620,
      "quantity": 3621,
      "quaint": 3622,
      "suppos": 3623,
      "trov": 3624,
      "shod": 3625,
      "shara": 3626,
      "soc": 3627,
      "wellke": 3628,
      "wellapp": 3629,
      "wellmain": 3630,
      "anuj": 3631,
      "means": 3632,
      "nearer": 3633,
      "##ills": 3634,
      "experiencethank": 3635,
      "airtel": 3636,
      "aircondition": 3637,
      "##roach": 3638,
      "deb": 3639,
      "clin": 3640,
      "cloth": 3641,
      "clients": 3642,
      "concept": 3643,
      "##usion": 3644,
      "enabled": 3645,
      "sajad": 3646,
      "pricey": 3647,
      "mainly": 3648,
      "argu": 3649,
      "tired": 3650,
      "timing": 3651,
      "##aging": 3652,
      "##please": 3653,
      "nthird": 3654,
      "##oute": 3655,
      "receptionlo": 3656,
      "heard": 3657,
      "healthy": 3658,
      "extent": 3659,
      "recommendable": 3660,
      "##iging": 3661,
      "##igate": 3662,
      "facing": 3663,
      "story": 3664,
      "structure": 3665,
      "strol": 3666,
      "stones": 3667,
      "agree": 3668,
      "agence": 3669,
      "aggress": 3670,
      "coordin": 3671,
      "##taurants": 3672,
      "visible": 3673,
      "##ontinue": 3674,
      "##izen": 3675,
      "##izione": 3676,
      "##ifi": 3677,
      "##ought": 3678,
      "guid": 3679,
      "smalle": 3680,
      "smoking": 3681,
      "events": 3682,
      "##imos": 3683,
      "upset": 3684,
      "update": 3685,
      "upmarket": 3686,
      "immaculate": 3687,
      "deserves": 3688,
      "flood": 3689,
      "cooperat": 3690,
      "minar": 3691,
      "##raja": 3692,
      "##raveen": 3693,
      "travels": 3694,
      "nap": 3695,
      "najrul": 3696,
      "biggest": 3697,
      "freely": 3698,
      "freind": 3699,
      "wonders": 3700,
      "advert": 3701,
      "una": 3702,
      "unw": 3703,
      "covered": 3704,
      "##tend": 3705,
      "hasta": 3706,
      "party": 3707,
      "parks": 3708,
      "parath": 3709,
      "paratha": 3710,
      "rohit": 3711,
      "enjoying": 3712,
      "doing": 3713,
      "extreme": 3714,
      "interaction": 3715,
      "pleased": 3716,
      "seating": 3717,
      "sevice": 3718,
      "accommodated": 3719,
      "##shan": 3720,
      "charm": 3721,
      "character": 3722,
      "quietish": 3723,
      "compet": 3724,
      "comparing": 3725,
      "complying": 3726,
      "feels": 3727,
      "persons": 3728,
      "personel": 3729,
      "personally": 3730,
      "dirt": 3731,
      "enthus": 3732,
      "##getic": 3733,
      "##gether": 3734,
      "##ishek": 3735,
      "courteously": 3736,
      "busiest": 3737,
      "cheaper": 3738,
      "thanku": 3739,
      "owne": 3740,
      "twin": 3741,
      "twists": 3742,
      "spaces": 3743,
      "training": 3744,
      "whatsoever": 3745,
      "##anded": 3746,
      "happiness": 3747,
      "least": 3748,
      "leisure": 3749,
      "payments": 3750,
      "##iphon": 3751,
      "firm": 3752,
      "everthing": 3753,
      "fell": 3754,
      "themselves": 3755,
      "bookingcomand": 3756,
      "professionalism": 3757,
      "calling": 3758,
      "tvslow": 3759,
      "##ointing": 3760,
      "firstly": 3761,
      "grade": 3762,
      "gratitude": 3763,
      "##endra": 3764,
      "posizione": 3765,
      "fabex": 3766,
      "freshly": 3767,
      "freshening": 3768,
      "knows": 3769,
      "starting": 3770,
      "effort": 3771,
      "commut": 3772,
      "transformed": 3773,
      "includes": 3774,
      "older": 3775,
      "expectation": 3776,
      "model": 3777,
      "thru": 3778,
      "throw": 3779,
      "added": 3780,
      "##iversary": 3781,
      "ndls": 3782,
      "regret": 3783,
      "localiz": 3784,
      "pictured": 3785,
      "throughout": 3786,
      "##cleanliness": 3787,
      "warming": 3788,
      "##anket": 3789,
      "eaten": 3790,
      "nwill": 3791,
      "speacial": 3792,
      "ensuring": 3793,
      "puri": 3794,
      "purch": 3795,
      "blue": 3796,
      "blowing": 3797,
      "blankets": 3798,
      "blanket": 3799,
      "listing": 3800,
      "matter": 3801,
      "swift": 3802,
      "scary": 3803,
      "remain": 3804,
      "smiles": 3805,
      "refresh": 3806,
      "completed": 3807,
      "confusion": 3808,
      "paidlocation": 3809,
      "considered": 3810,
      "##aug": 3811,
      "##rict": 3812,
      "##upid": 3813,
      "mistake": 3814,
      "##ubarb": 3815,
      "offering": 3816,
      "estaba": 3817,
      "nfake": 3818,
      "nfirst": 3819,
      "complaint": 3820,
      "complains": 3821,
      "consideration": 3822,
      "residency": 3823,
      "finishing": 3824,
      "classic": 3825,
      "generous": 3826,
      "plentiful": 3827,
      "serene": 3828,
      "reply": 3829,
      "organised": 3830,
      "impeccably": 3831,
      "12pm": 3832,
      "authent": 3833,
      "turns": 3834,
      "village": 3835,
      "impression": 3836,
      "difficulty": 3837,
      "points": 3838,
      "established": 3839,
      "bottles": 3840,
      "vihar": 3841,
      "bedsheet": 3842,
      "explain": 3843,
      "mahraja": 3844,
      "fairly": 3845,
      "purposes": 3846,
      "bars": 3847,
      "embarr": 3848,
      "hoard": 3849,
      "##ifics": 3850,
      "fixing": 3851,
      "sarvice": 3852,
      "sarfar": 3853,
      "bathtub": 3854,
      "named": 3855,
      "names": 3856,
      "chairs": 3857,
      "curtains": 3858,
      "moving": 3859,
      "mobile": 3860,
      "naro": 3861,
      "passage": 3862,
      "vege": 3863,
      "answered": 3864,
      "discount": 3865,
      "discontinue": 3866,
      "disappointing": 3867,
      "regards": 3868,
      "khan": 3869,
      "denying": 3870,
      "electricity": 3871,
      "boiler": 3872,
      "selection": 3873,
      "tarrif": 3874,
      "##ntsized": 3875,
      "subway": 3876,
      "sububarb": 3877,
      "factor": 3878,
      "nspecial": 3879,
      "250": 3880,
      "creates": 3881,
      "jiffy": 3882,
      "operative": 3883,
      "operations": 3884,
      "store": 3885,
      "chefs": 3886,
      "transferring": 3887,
      "bhai": 3888,
      "cabs": 3889,
      "##30am": 3890,
      "words": 3891,
      "surrounding": 3892,
      "specifically": 3893,
      "nrecommended": 3894,
      "gets": 3895,
      "normally": 3896,
      "tomb": 3897,
      "werent": 3898,
      "fruits": 3899,
      "holds": 3900,
      "345am": 3901,
      "crazy": 3902,
      "function": 3903,
      "signals": 3904,
      "teliphon": 3905,
      "vinod": 3906,
      "vintage": 3907,
      "allotted": 3908,
      "valued": 3909,
      "mosquitoes": 3910,
      "hesitation": 3911,
      "hesitate": 3912,
      "gk1": 3913,
      "nstuff": 3914,
      "rains": 3915,
      "locatio": 3916,
      "anniversary": 3917,
      "flowers": 3918,
      "parantha": 3919,
      "touristy": 3920,
      "baby": 3921,
      "holiday": 3922,
      "junction": 3923,
      "mblock": 3924,
      "obj": 3925,
      "palace": 3926,
      "pacifics": 3927,
      "excelle": 3928,
      "supply": 3929,
      "solve": 3930,
      "decentsized": 3931,
      "deepak": 3932,
      "concern": 3933,
      "features": 3934,
      "displayed": 3935,
      "cockroach": 3936,
      "towards": 3937,
      "colonial": 3938,
      "seriously": 3939,
      "months": 3940,
      "formalities": 3941,
      "system": 3942,
      "networks": 3943,
      "llamamos": 3944,
      "malviya": 3945,
      "destinations": 3946,
      "filthy": 3947,
      "kids": 3948,
      "license": 3949,
      "material": 3950,
      "sachets": 3951,
      "wardro": 3952,
      "##easy": 3953,
      "rejuvenating": 3954,
      "primary": 3955,
      "success": 3956,
      "overbite": 3957,
      "abhishek": 3958,
      "abundance": 3959,
      "dozed": 3960,
      "separate": 3961,
      "maidens": 3962,
      "assigned": 3963,
      "consistently": 3964,
      "marriot": 3965,
      "faultless": 3966,
      "reputation": 3967,
      "collected": 3968,
      "favorite": 3969,
      "auf": 3970,
      "axis": 3971,
      "antic": 3972,
      "boutique": 3973,
      "citizen": 3974,
      "cereals": 3975,
      "cigare": 3976,
      "category": 3977,
      "dorms": 3978,
      "drenched": 3979,
      "italian": 3980,
      "japanese": 3981,
      "lajpat": 3982,
      "llegamos": 3983,
      "molto": 3984,
      "nterrace": 3985,
      "niche": 3986,
      "obliging": 3987,
      "penny": 3988,
      "pampered": 3989,
      "qutub": 3990,
      "roll": 3991,
      "vivanta": 3992,
      "zimmer": 3993,
      "##iastic": 3994,
      "##upied": 3995,
      "frightfully": 3996,
      "prawn": 3997,
      "noida": 3998,
      "sporting": 3999,
      "friendlyfoods": 4000,
      "mysterious": 4001,
      "supposed": 4002,
      "shoddy": 4003,
      "wellkept": 4004,
      "wellappointed": 4005,
      "wellmaintained": 4006,
      "clothes": 4007,
      "argument": 4008,
      "receptionlobby": 4009,
      "coordinate": 4010,
      "smallest": 4011,
      "parathas": 4012,
      "enthusiastic": 4013,
      "fabexpress": 4014,
      "authentic": 4015,
      "embarrass": 4016,
      "sarfaraz": 4017,
      "cockroaches": 4018,
      "09": 4019,
      "2000": 4020,
      "500": 4021,
      "60": 4022,
      "6000": 4023,
      "aqu": 4024,
      "aap": 4025,
      "bi": 4026,
      "bou": 4027,
      "bol": 4028,
      "bread": 4029,
      "bang": 4030,
      "brand": 4031,
      "cp": 4032,
      "cause": 4033,
      "cush": 4034,
      "dom": 4035,
      "dos": 4036,
      "dow": 4037,
      "dada": 4038,
      "east": 4039,
      "egg": 4040,
      "fo": 4041,
      "fail": 4042,
      "fish": 4043,
      "flying": 4044,
      "gon": 4045,
      "gar": 4046,
      "gul": 4047,
      "gid": 4048,
      "gam": 4049,
      "gali": 4050,
      "gadi": 4051,
      "har": 4052,
      "hud": 4053,
      "hell": 4054,
      "hung": 4055,
      "htel": 4056,
      "halt": 4057,
      "ju": 4058,
      "jhouse": 4059,
      "kad": 4060,
      "kab": 4061,
      "kashm": 4062,
      "ms": 4063,
      "med": 4064,
      "nr": 4065,
      "n6": 4066,
      "nour": 4067,
      "nare": 4068,
      "noor": 4069,
      "ncent": 4070,
      "nhot": 4071,
      "nkeep": 4072,
      "nrain": 4073,
      "niger": 4074,
      "nplease": 4075,
      "ov": 4076,
      "oak": 4077,
      "ola": 4078,
      "po": 4079,
      "pi": 4080,
      "rid": 4081,
      "rough": 4082,
      "rare": 4083,
      "rats": 4084,
      "russ": 4085,
      "sight": 4086,
      "sile": 4087,
      "tre": 4088,
      "tut": 4089,
      "test": 4090,
      "ut": 4091,
      "uj": 4092,
      "upi": 4093,
      "umes": 4094,
      "vent": 4095,
      "wat": 4096,
      "wood": 4097,
      "wes": 4098,
      "wake": 4099,
      "wok": 4100,
      "ya": 4101,
      "zom": 4102,
      "##oer": 4103,
      "##no": 4104,
      "##non": 4105,
      "##nal": 4106,
      "##nment": 4107,
      "##eed": 4108,
      "##every": 4109,
      "##eared": 4110,
      "##af": 4111,
      "##ame": 4112,
      "##ament": 4113,
      "##aired": 4114,
      "##tu": 4115,
      "##tery": 4116,
      "##tif": 4117,
      "##tling": 4118,
      "##gc": 4119,
      "##gs": 4120,
      "##gy": 4121,
      "##gd": 4122,
      "##got": 4123,
      "##gust": 4124,
      "##gred": 4125,
      "##rc": 4126,
      "##ran": 4127,
      "##rid": 4128,
      "##rative": 4129,
      "##ried": 4130,
      "##ract": 4131,
      "##riger": 4132,
      "##cl": 4133,
      "##cos": 4134,
      "##some": 4135,
      "##stance": 4136,
      "##spe": 4137,
      "##second": 4138,
      "##iar": 4139,
      "##itable": 4140,
      "##iate": 4141,
      "##unt": 4142,
      "##uous": 4143,
      "##uso": 4144,
      "##uced": 4145,
      "##vic": 4146,
      "##vely": 4147,
      "##vantage": 4148,
      "##ker": 4149,
      "##kfast": 4150,
      "##khar": 4151,
      "##khas": 4152,
      "##kadd": 4153,
      "##pos": 4154,
      "##pacious": 4155,
      "##pack": 4156,
      "##pret": 4157,
      "##pects": 4158,
      "##peted": 4159,
      "##hr": 4160,
      "##his": 4161,
      "##hone": 4162,
      "##hey": 4163,
      "##hrs": 4164,
      "##ying": 4165,
      "##wan": 4166,
      "##what": 4167,
      "##ds": 4168,
      "##der": 4169,
      "##del": 4170,
      "##duc": 4171,
      "##mon": 4172,
      "##mfit": 4173,
      "##lin": 4174,
      "##lied": 4175,
      "##lave": 4176,
      "##lls": 4177,
      "##bin": 4178,
      "##bing": 4179,
      "##but": 4180,
      "##bad": 4181,
      "##bers": 4182,
      "##back": 4183,
      "##brand": 4184,
      "##fard": 4185,
      "##fied": 4186,
      "##free": 4187,
      "##fasts": 4188,
      "##jol": 4189,
      "##jeet": 4190,
      "##zo": 4191,
      "##zi": 4192,
      "##800": 4193,
      "##23": 4194,
      "##erous": 4195,
      "##erally": 4196,
      "##erge": 4197,
      "##eries": 4198,
      "##erate": 4199,
      "thum": 4200,
      "thinking": 4201,
      "##ooked": 4202,
      "##ndar": 4203,
      "##tan": 4204,
      "##taind": 4205,
      "##tari": 4206,
      "##ased": 4207,
      "##elicious": 4208,
      "##inu": 4209,
      "##inks": 4210,
      "##leum": 4211,
      "##ati": 4212,
      "##orrect": 4213,
      "stain": 4214,
      "stalls": 4215,
      "##ream": 4216,
      "##edsh": 4217,
      "##anas": 4218,
      "##omfortable": 4219,
      "##itor": 4220,
      "##itten": 4221,
      "##fficient": 4222,
      "##ioning": 4223,
      "##ooma": 4224,
      "goodstaff": 4225,
      "toh": 4226,
      "toka": 4227,
      "together": 4228,
      "stafffood": 4229,
      "roomhave": 4230,
      "roomgd": 4231,
      "ist": 4232,
      "isk": 4233,
      "reme": 4234,
      "##ala": 4235,
      "##isa": 4236,
      "##isit": 4237,
      "##ister": 4238,
      "forest": 4239,
      "formed": 4240,
      "forgot": 4241,
      "lod": 4242,
      "lol": 4243,
      "lost": 4244,
      "inj": 4245,
      "informed": 4246,
      "ingred": 4247,
      "hotel5": 4248,
      "hotelclean": 4249,
      "##arily": 4250,
      "##arison": 4251,
      "locates": 4252,
      "##ilar": 4253,
      "comment": 4254,
      "combo": 4255,
      "##iece": 4256,
      "##ieur": 4257,
      "locationvery": 4258,
      "cleanest": 4259,
      "cleanfood": 4260,
      "exc": 4261,
      "exha": 4262,
      "exists": 4263,
      "exisit": 4264,
      "##ular": 4265,
      "##ults": 4266,
      "##ultation": 4267,
      "##ultane": 4268,
      "prin": 4269,
      "prot": 4270,
      "pract": 4271,
      "stayth": 4272,
      "##ecomfortable": 4273,
      "##veg": 4274,
      "nobody": 4275,
      "notes": 4276,
      "noticed": 4277,
      "##utt": 4278,
      "##uted": 4279,
      "##ution": 4280,
      "##utdin": 4281,
      "##aking": 4282,
      "##akfast": 4283,
      "##ntown": 4284,
      "nicefood": 4285,
      "##osen": 4286,
      "##adise": 4287,
      "##adrooms": 4288,
      "##advantage": 4289,
      "##theless": 4290,
      "##uration": 4291,
      "##aching": 4292,
      "##ervery": 4293,
      "proved": 4294,
      "produc": 4295,
      "bever": 4296,
      "roomsi": 4297,
      "roomshal": 4298,
      "chain": 4299,
      "chosen": 4300,
      "weve": 4301,
      "revamp": 4302,
      "##sted": 4303,
      "greater": 4304,
      "theyre": 4305,
      "youd": 4306,
      "youll": 4307,
      "friendlyclean": 4308,
      "breakfastroom": 4309,
      "breakfastbrand": 4310,
      "asks": 4311,
      "aspects": 4312,
      "##comfor": 4313,
      "##itya": 4314,
      "allerg": 4315,
      "delhis": 4316,
      "plun": 4317,
      "plum": 4318,
      "plaza": 4319,
      "haque": 4320,
      "haird": 4321,
      "ampl": 4322,
      "everytime": 4323,
      "liqu": 4324,
      "limit": 4325,
      "lively": 4326,
      "question": 4327,
      "queries": 4328,
      "sus": 4329,
      "suitable": 4330,
      "sundar": 4331,
      "sufficient": 4332,
      "shut": 4333,
      "shocked": 4334,
      "sofa": 4335,
      "##terday": 4336,
      "##avi": 4337,
      "##aving": 4338,
      "##hile": 4339,
      "worn": 4340,
      "experienced": 4341,
      "aircon": 4342,
      "##ustry": 4343,
      "depar": 4344,
      "propertyamazing": 4345,
      "mane": 4346,
      "manners": 4347,
      "usual": 4348,
      "##olated": 4349,
      "conci": 4350,
      "contains": 4351,
      "amazingthe": 4352,
      "maintaind": 4353,
      "arro": 4354,
      "tips": 4355,
      "nthen": 4356,
      "behe": 4357,
      "##ives": 4358,
      "bestwhat": 4359,
      "extr": 4360,
      "bathing": 4361,
      "battery": 4362,
      "##iginal": 4363,
      "##iguration": 4364,
      "orion": 4365,
      "original": 4366,
      "perf": 4367,
      "str": 4368,
      "stud": 4369,
      "stra": 4370,
      "stove": 4371,
      "stupid": 4372,
      "cooking": 4373,
      "bathroomhot": 4374,
      "feed": 4375,
      "##ifiable": 4376,
      "##iled": 4377,
      "##ileged": 4378,
      "smiling": 4379,
      "pear": 4380,
      "##istrative": 4381,
      "preet": 4382,
      "prefard": 4383,
      "highway": 4384,
      "highspe": 4385,
      "justifiable": 4386,
      "expanded": 4387,
      "okgood": 4388,
      "attrac": 4389,
      "attract": 4390,
      "outd": 4391,
      "outer": 4392,
      "##imate": 4393,
      "descent": 4394,
      "desire": 4395,
      "disgust": 4396,
      "disadvantage": 4397,
      "kinda": 4398,
      "flav": 4399,
      "flush": 4400,
      "cooperating": 4401,
      "showers": 4402,
      "##agemfit": 4403,
      "##pted": 4404,
      "##ptuous": 4405,
      "mine": 4406,
      "##abadrooms": 4407,
      "famous": 4408,
      "traveling": 4409,
      "yourself": 4410,
      "neatness": 4411,
      "tej": 4412,
      "text": 4413,
      "ads": 4414,
      "adult": 4415,
      "admin": 4416,
      "gold": 4417,
      "unit": 4418,
      "unne": 4419,
      "copret": 4420,
      "mug": 4421,
      "mukesh": 4422,
      "paradise": 4423,
      "doc": 4424,
      "intercom": 4425,
      "interru": 4426,
      "seats": 4427,
      "sehr": 4428,
      "##umstance": 4429,
      "appl": 4430,
      "appeared": 4431,
      "course": 4432,
      "accommodative": 4433,
      "accommodations": 4434,
      "##shotel": 4435,
      "impact": 4436,
      "comparison": 4437,
      "bukhar": 4438,
      "indeed": 4439,
      "industry": 4440,
      "##ocate": 4441,
      "roads": 4442,
      "tasted": 4443,
      "##ryer": 4444,
      "##ape": 4445,
      "cares": 4446,
      "entered": 4447,
      "cheater": 4448,
      "thankful": 4449,
      "thankyou": 4450,
      "##icky": 4451,
      "relation": 4452,
      "relocate": 4453,
      "##ander": 4454,
      "leed": 4455,
      "leaving": 4456,
      "outage": 4457,
      "walkable": 4458,
      "backpack": 4459,
      "##mber": 4460,
      "manypl": 4461,
      "knots": 4462,
      "literally": 4463,
      "paying": 4464,
      "##ipur": 4465,
      "mrt": 4466,
      "dined": 4467,
      "whereas": 4468,
      "wherever": 4469,
      "conditions": 4470,
      "conditioned": 4471,
      "fellow": 4472,
      "##oining": 4473,
      "gr8": 4474,
      "gracious": 4475,
      "showertv": 4476,
      "mauso": 4477,
      "promot": 4478,
      "fabhotel": 4479,
      "instant": 4480,
      "started": 4481,
      "deco": 4482,
      "effect": 4483,
      "takers": 4484,
      "restro": 4485,
      "nnear": 4486,
      "similar": 4487,
      "simultane": 4488,
      "moderate": 4489,
      "pics": 4490,
      "picked": 4491,
      "partner": 4492,
      "pools": 4493,
      "##arma": 4494,
      "consum": 4495,
      "consultation": 4496,
      "carried": 4497,
      "carpeted": 4498,
      "balance": 4499,
      "nde": 4500,
      "ndr": 4501,
      "ndelicious": 4502,
      "saty": 4503,
      "##proof": 4504,
      "##priate": 4505,
      "expecting": 4506,
      "offeredcos": 4507,
      "sleepy": 4508,
      "human": 4509,
      "nbe": 4510,
      "nbig": 4511,
      "nbathroom": 4512,
      "relaxation": 4513,
      "based": 4514,
      "register": 4515,
      "nits": 4516,
      "##ajun": 4517,
      "windowless": 4518,
      "towelnot": 4519,
      "nhe": 4520,
      "nhas": 4521,
      "nwould": 4522,
      "nwifi": 4523,
      "terr": 4524,
      "terrible": 4525,
      "humbleness": 4526,
      "purely": 4527,
      "tasteful": 4528,
      "affordability": 4529,
      "biriy": 4530,
      "matched": 4531,
      "settings": 4532,
      "exceeding": 4533,
      "remove": 4534,
      "smiley": 4535,
      "##near": 4536,
      "##graded": 4537,
      "refriger": 4538,
      "configuration": 4539,
      "moments": 4540,
      "retreat": 4541,
      "##upying": 4542,
      "misbe": 4543,
      "waiting": 4544,
      "corrid": 4545,
      "downgraded": 4546,
      "sounded": 4547,
      "soundproof": 4548,
      "##ruction": 4549,
      "##quee": 4550,
      "advance": 4551,
      "surprising": 4552,
      "residing": 4553,
      "residence": 4554,
      "heartbe": 4555,
      "prepar": 4556,
      "prepare": 4557,
      "finicky": 4558,
      "mallshotel": 4559,
      "inviting": 4560,
      "generously": 4561,
      "repres": 4562,
      "repaired": 4563,
      "stuffs": 4564,
      "1200": 4565,
      "autor": 4566,
      "autos": 4567,
      "nres": 4568,
      "turned": 4569,
      "privileged": 4570,
      "sweetest": 4571,
      "faced": 4572,
      "cancelling": 4573,
      "countries": 4574,
      "clearly": 4575,
      "hotal": 4576,
      "##undan": 4577,
      "ashu": 4578,
      "ashish": 4579,
      "elsewhere": 4580,
      "fixed": 4581,
      "aera": 4582,
      "breakfasts": 4583,
      "district": 4584,
      "girl": 4585,
      "saroj": 4586,
      "sarvic": 4587,
      "weeks": 4588,
      "grounds": 4589,
      "confirmed": 4590,
      "ign": 4591,
      "igia": 4592,
      "passing": 4593,
      "passport": 4594,
      "yesterday": 4595,
      "##board": 4596,
      "suites": 4597,
      "appropriate": 4598,
      "requirement": 4599,
      "particular": 4600,
      "assisted": 4601,
      "assisting": 4602,
      "linens": 4603,
      "touched": 4604,
      "reservations": 4605,
      "sending": 4606,
      "search": 4607,
      "electrical": 4608,
      "##ructed": 4609,
      "apolog": 4610,
      "board": 4611,
      "monuments": 4612,
      "##ntstaff": 4613,
      "accepted": 4614,
      "sumptuous": 4615,
      "engage": 4616,
      "enclave": 4617,
      "assistant": 4618,
      "employee": 4619,
      "flexibility": 4620,
      "created": 4621,
      "tuktu": 4622,
      "##stay": 4623,
      "stores": 4624,
      "storage": 4625,
      "premises": 4626,
      "papers": 4627,
      "transferred": 4628,
      "nizamutdin": 4629,
      "1100": 4630,
      "11pm": 4631,
      "believe": 4632,
      "breathe": 4633,
      "certif": 4634,
      "ncare": 4635,
      "sons": 4636,
      "##ortspacious": 4637,
      "##restaurants": 4638,
      "eventually": 4639,
      "constrc": 4640,
      "construction": 4641,
      "constructed": 4642,
      "24hrs": 4643,
      "nneat": 4644,
      "spotlessly": 4645,
      "naturally": 4646,
      "raised": 4647,
      "talk": 4648,
      "##guitar": 4649,
      "sunil": 4650,
      "unsafe": 4651,
      "holding": 4652,
      "occupying": 4653,
      "opted": 4654,
      "treated": 4655,
      "treatment": 4656,
      "alloted": 4657,
      "hauzkhas": 4658,
      "booksguitar": 4659,
      "smelled": 4660,
      "smelling": 4661,
      "minimum": 4662,
      "familiar": 4663,
      "restrictions": 4664,
      "arrangementslooking": 4665,
      "selecting": 4666,
      "xa0our": 4667,
      "xa0stay": 4668,
      "1lit": 4669,
      "jaipur": 4670,
      "jams": 4671,
      "parents": 4672,
      "##ttes": 4673,
      "toaster": 4674,
      "chanda": 4675,
      "actioned": 4676,
      "flows": 4677,
      "adjoining": 4678,
      "paranthas": 4679,
      "responsiveness": 4680,
      "apartment": 4681,
      "vegnon": 4682,
      "following": 4683,
      "40de": 4684,
      "cupboard": 4685,
      "dormitory": 4686,
      "ncheck": 4687,
      "vacant": 4688,
      "shwapan": 4689,
      "shwoer": 4690,
      "relief": 4691,
      "vikas": 4692,
      "2021": 4693,
      "unsatisfied": 4694,
      "unsatisfactory": 4695,
      "circumstance": 4696,
      "equal": 4697,
      "hyder": 4698,
      "masala": 4699,
      "##ralised": 4700,
      "##services": 4701,
      "##vision": 4702,
      "##tarpur": 4703,
      "repeated": 4704,
      "airportspacious": 4705,
      "sagged": 4706,
      "steps": 4707,
      "attending": 4708,
      "cheaters": 4709,
      "genuine": 4710,
      "minimalistic": 4711,
      "gentleman": 4712,
      "cultured": 4713,
      "bakery": 4714,
      "catered": 4715,
      "garden": 4716,
      "hallways": 4717,
      "katra": 4718,
      "micro": 4719,
      "racis": 4720,
      "sessions": 4721,
      "##haved": 4722,
      "changes": 4723,
      "springs": 4724,
      "platform": 4725,
      "agreeing": 4726,
      "advertised": 4727,
      "competent": 4728,
      "hoardings": 4729,
      "vegetari": 4730,
      "discounted": 4731,
      "functional": 4732,
      "excellentstaff": 4733,
      "concerned": 4734,
      "wardrobe": 4735,
      "cigarettes": 4736,
      "embarrassing": 4737,
      "aquagemfit": 4738,
      "cushioning": 4739,
      "downtown": 4740,
      "fox": 4741,
      "gonna": 4742,
      "gulshan": 4743,
      "gamajun": 4744,
      "hudson": 4745,
      "hungry": 4746,
      "juice": 4747,
      "kadkadd": 4748,
      "medical": 4749,
      "noorul": 4750,
      "ncentralised": 4751,
      "nigerian": 4752,
      "oververy": 4753,
      "poha": 4754,
      "silence": 4755,
      "testing": 4756,
      "ujjol": 4757,
      "umesh": 4758,
      "watching": 4759,
      "western": 4760,
      "zomato": 4761,
      "##delhi": 4762,
      "thumbs": 4763,
      "##edsheets": 4764,
      "tokai": 4765,
      "remember": 4766,
      "ingredients": 4767,
      "hotelcleaned": 4768,
      "exhaust": 4769,
      "beverage": 4770,
      "roomshala": 4771,
      "breakfastroomcleanliness": 4772,
      "allergic": 4773,
      "plunge": 4774,
      "plumbing": 4775,
      "amplfied": 4776,
      "limited": 4777,
      "departure": 4778,
      "concierge": 4779,
      "straight": 4780,
      "highspeed": 4781,
      "desires": 4782,
      "disgusting": 4783,
      "administrative": 4784,
      "unnecess": 4785,
      "copretive": 4786,
      "bukhara": 4787,
      "backpackers": 4788,
      "manyplaces": 4789,
      "mausoleum": 4790,
      "simultaneously": 4791,
      "offeredcosts": 4792,
      "registered": 4793,
      "biriyani": 4794,
      "refrigerator": 4795,
      "misbehaved": 4796,
      "surprisingly": 4797,
      "heartbeat": 4798,
      "sarojini": 4799,
      "tuktuks": 4800,
      "certified": 4801,
      "constrcution": 4802,
      "vegnonveg": 4803,
      "40degc": 4804,
      "circumstances": 4805,
      "hyderabadrooms": 4806,
      "vegetarian": 4807,
      "aquagemfittings": 4808,
      "kadkaddooma": 4809,
      "1am": 4810,
      "1friendly": 4811,
      "2k": 4812,
      "21": 4813,
      "27": 4814,
      "26": 4815,
      "2am": 4816,
      "200": 4817,
      "39": 4818,
      "4th": 4819,
      "4ft": 4820,
      "5000": 4821,
      "5second": 4822,
      "64": 4823,
      "67": 4824,
      "6am": 4825,
      "6pm": 4826,
      "615": 4827,
      "76": 4828,
      "8n": 4829,
      "800": 4830,
      "94": 4831,
      "900": 4832,
      "9000": 4833,
      "ak": 4834,
      "az": 4835,
      "aen": 4836,
      "aak": 4837,
      "aur": 4838,
      "ame": 4839,
      "aura": 4840,
      "auch": 4841,
      "aster": 4842,
      "aisa": 4843,
      "bn": 4844,
      "bre": 4845,
      "bul": 4846,
      "ball": 4847,
      "bust": 4848,
      "bard": 4849,
      "bip": 4850,
      "backs": 4851,
      "banks": 4852,
      "bought": 4853,
      "ci": 4854,
      "c9": 4855,
      "cre": 4856,
      "cous": 4857,
      "cine": 4858,
      "cct": 4859,
      "czy": 4860,
      "cuz": 4861,
      "citi": 4862,
      "cels": 4863,
      "dnd": 4864,
      "dou": 4865,
      "die": 4866,
      "det": 4867,
      "dig": 4868,
      "dark": 4869,
      "dim": 4870,
      "dab": 4871,
      "dass": 4872,
      "dash": 4873,
      "dary": 4874,
      "dang": 4875,
      "dhal": 4876,
      "dicen": 4877,
      "draw": 4878,
      "dream": 4879,
      "eg": 4880,
      "ecellent": 4881,
      "ft": 4882,
      "fu": 4883,
      "fly": 4884,
      "fec": 4885,
      "five": 4886,
      "farm": 4887,
      "father": 4888,
      "fuss": 4889,
      "fetch": 4890,
      "gm": 4891,
      "gur": 4892,
      "groom": 4893,
      "gab": 4894,
      "gand": 4895,
      "gates": 4896,
      "gste": 4897,
      "ghat": 4898,
      "g20": 4899,
      "hk": 4900,
      "hit": 4901,
      "hic": 4902,
      "hain": 4903,
      "hers": 4904,
      "hus": 4905,
      "hop": 4906,
      "hired": 4907,
      "hens": 4908,
      "ii": 4909,
      "jy": 4910,
      "jat": 4911,
      "jour": 4912,
      "jol": 4913,
      "july": 4914,
      "kit": 4915,
      "kud": 4916,
      "kah": 4917,
      "kundan": 4918,
      "lc": 4919,
      "ly": 4920,
      "lin": 4921,
      "len": 4922,
      "les": 4923,
      "laz": 4924,
      "lag": 4925,
      "laut": 4926,
      "lady": 4927,
      "lang": 4928,
      "lga": 4929,
      "mi": 4930,
      "mv": 4931,
      "mast": 4932,
      "mill": 4933,
      "mould": 4934,
      "moc": 4935,
      "maps": 4936,
      "mtt": 4937,
      "nt": 4938,
      "n1": 4939,
      "n8": 4940,
      "n7": 4941,
      "n9": 4942,
      "nta": 4943,
      "nas": 4944,
      "nor": 4945,
      "ning": 4946,
      "nan": 4947,
      "nis": 4948,
      "nur": 4949,
      "nme": 4950,
      "nhi": 4951,
      "nill": 4952,
      "nro": 4953,
      "niv": 4954,
      "nse": 4955,
      "nhere": 4956,
      "nord": 4957,
      "npl": 4958,
      "nyou": 4959,
      "n10": 4960,
      "njust": 4961,
      "opport": 4962,
      "oct": 4963,
      "ogr": 4964,
      "pv": 4965,
      "pin": 4966,
      "ped": 4967,
      "pet": 4968,
      "pace": 4969,
      "pain": 4970,
      "pple": 4971,
      "pun": 4972,
      "pop": 4973,
      "pand": 4974,
      "pok": 4975,
      "pooja": 4976,
      "pull": 4977,
      "pakh": 4978,
      "piece": 4979,
      "qotel": 4980,
      "ran": 4981,
      "ris": 4982,
      "rar": 4983,
      "rust": 4984,
      "rout": 4985,
      "rip": 4986,
      "rink": 4987,
      "rosh": 4988,
      "rush": 4989,
      "ravi": 4990,
      "sf": 4991,
      "sor": 4992,
      "san": 4993,
      "sal": 4994,
      "sick": 4995,
      "surn": 4996,
      "sell": 4997,
      "squee": 4998,
      "ta": 4999,
      "tc": 5000,
      "tin": 5001,
      "tall": 5002,
      "tone": 5003,
      "tark": 5004,
      "tack": 5005,
      "tap": 5006,
      "telf": 5007,
      "tele": 5008,
      "tuc": 5009,
      "tila": 5010,
      "ump": 5011,
      "vs": 5012,
      "vu": 5013,
      "vf": 5014,
      "von": 5015,
      "vast": 5016,
      "vol": 5017,
      "wo": 5018,
      "wit": 5019,
      "war": 5020,
      "wander": 5021,
      "yam": 5022,
      "yell": 5023,
      "zone": 5024,
      "zun": 5025,
      "zaza": 5026,
      "##oi": 5027,
      "##oal": 5028,
      "##old": 5029,
      "##oicing": 5030,
      "##ofriendly": 5031,
      "##ogetic": 5032,
      "##ng": 5033,
      "##ni": 5034,
      "##nu": 5035,
      "##ney": 5036,
      "##ncy": 5037,
      "##nishing": 5038,
      "##eper": 5039,
      "##ao": 5040,
      "##aim": 5041,
      "##aled": 5042,
      "##afy": 5043,
      "##tom": 5044,
      "##tich": 5045,
      "##tries": 5046,
      "##tuk": 5047,
      "##gi": 5048,
      "##great": 5049,
      "##gely": 5050,
      "##going": 5051,
      "##rom": 5052,
      "##rad": 5053,
      "##rant": 5054,
      "##rath": 5055,
      "##rummy": 5056,
      "##rtries": 5057,
      "##co": 5058,
      "##cation": 5059,
      "##cake": 5060,
      "##cont": 5061,
      "##cks": 5062,
      "##ctless": 5063,
      "##cupied": 5064,
      "##sc": 5065,
      "##sk": 5066,
      "##sap": 5067,
      "##sibly": 5068,
      "##srooms": 5069,
      "##iery": 5070,
      "##ilent": 5071,
      "##ius": 5072,
      "##ital": 5073,
      "##iod": 5074,
      "##uce": 5075,
      "##uar": 5076,
      "##ulent": 5077,
      "##uge": 5078,
      "##uite": 5079,
      "##uage": 5080,
      "##uests": 5081,
      "##uals": 5082,
      "##uck": 5083,
      "##vt": 5084,
      "##vit": 5085,
      "##vard": 5086,
      "##vior": 5087,
      "##kn": 5088,
      "##kit": 5089,
      "##kar": 5090,
      "##kul": 5091,
      "##kms": 5092,
      "##xx": 5093,
      "##por": 5094,
      "##pre": 5095,
      "##pful": 5096,
      "##pay": 5097,
      "##pond": 5098,
      "##pse": 5099,
      "##praveen": 5100,
      "##hn": 5101,
      "##hel": 5102,
      "##hom": 5103,
      "##hst": 5104,
      "##hol": 5105,
      "##hra": 5106,
      "##hance": 5107,
      "##hoc": 5108,
      "##hop": 5109,
      "##hours": 5110,
      "##ye": 5111,
      "##yy": 5112,
      "##yin": 5113,
      "##yal": 5114,
      "##ws": 5115,
      "##wm": 5116,
      "##wal": 5117,
      "##war": 5118,
      "##would": 5119,
      "##warm": 5120,
      "##when": 5121,
      "##dr": 5122,
      "##dic": 5123,
      "##draw": 5124,
      "##duced": 5125,
      "##mi": 5126,
      "##mly": 5127,
      "##mar": 5128,
      "##mos": 5129,
      "##mir": 5130,
      "##mant": 5131,
      "##mers": 5132,
      "##made": 5133,
      "##miss": 5134,
      "##marr": 5135,
      "##lace": 5136,
      "##llent": 5137,
      "##bt": 5138,
      "##bb": 5139,
      "##bon": 5140,
      "##ben": 5141,
      "##bir": 5142,
      "##bience": 5143,
      "##bition": 5144,
      "##band": 5145,
      "##bility": 5146,
      "##fl": 5147,
      "##fet": 5148,
      "##file": 5149,
      "##fact": 5150,
      "##jer": 5151,
      "##jhe": 5152,
      "##03": 5153,
      "##4h": 5154,
      "##62": 5155,
      "##eroom": 5156,
      "##eral": 5157,
      "##erior": 5158,
      "##erence": 5159,
      "##erpreet": 5160,
      "##ergetic": 5161,
      "tho": 5162,
      "thn": 5163,
      "ths": 5164,
      "thw": 5165,
      "thin": 5166,
      "thay": 5167,
      "threat": 5168,
      "thab": 5169,
      "##oooo": 5170,
      "##ndly": 5171,
      "##ndran": 5172,
      "##tas": 5173,
      "##taf": 5174,
      "##taway": 5175,
      "##tatt": 5176,
      "##tages": 5177,
      "##taker": 5178,
      "##tailed": 5179,
      "##tactless": 5180,
      "##asive": 5181,
      "##asions": 5182,
      "##eling": 5183,
      "##eliness": 5184,
      "andere": 5185,
      "anders": 5186,
      "andsel": 5187,
      "##inely": 5188,
      "##inthe": 5189,
      "##inese": 5190,
      "##les": 5191,
      "##lead": 5192,
      "##lect": 5193,
      "##levard": 5194,
      "##aty": 5195,
      "##atically": 5196,
      "##oris": 5197,
      "##orst": 5198,
      "##oram": 5199,
      "##orant": 5200,
      "##orated": 5201,
      "##orate": 5202,
      "##organ": 5203,
      "##orrow": 5204,
      "##orching": 5205,
      "##orical": 5206,
      "##oned": 5207,
      "##ontane": 5208,
      "##onoris": 5209,
      "stat": 5210,
      "stage": 5211,
      "state": 5212,
      "stairs": 5213,
      "washing": 5214,
      "##rent": 5215,
      "##rence": 5216,
      "##reib": 5217,
      "##otu": 5218,
      "##otic": 5219,
      "##eds": 5220,
      "##enk": 5221,
      "##enta": 5222,
      "##enomen": 5223,
      "##anor": 5224,
      "##anad": 5225,
      "##anim": 5226,
      "##anget": 5227,
      "##annel": 5228,
      "##anuj": 5229,
      "##omers": 5230,
      "##omatically": 5231,
      "##ited": 5232,
      "##iten": 5233,
      "##itud": 5234,
      "##ituted": 5235,
      "##ionbathroom": 5236,
      "##oul": 5237,
      "goodth": 5238,
      "goodfood": 5239,
      "goodhotel": 5240,
      "goodoverall": 5241,
      "goodbreakfast": 5242,
      "goodeasy": 5243,
      "goodevery": 5244,
      "goodpraveen": 5245,
      "goodwould": 5246,
      "toes": 5247,
      "toil": 5248,
      "today": 5249,
      "tosted": 5250,
      "stafff": 5251,
      "staffed": 5252,
      "staffgood": 5253,
      "staff12": 5254,
      "isnt": 5255,
      "recom": 5256,
      "resolut": 5257,
      "reque": 5258,
      "recomend": 5259,
      "reaching": 5260,
      "reorgan": 5261,
      "##aliness": 5262,
      "##ision": 5263,
      "##isine": 5264,
      "##isla": 5265,
      "##isera": 5266,
      "veryyy": 5267,
      "forever": 5268,
      "los": 5269,
      "load": 5270,
      "loyal": 5271,
      "##esp": 5272,
      "##especially": 5273,
      "##esbility": 5274,
      "hottel": 5275,
      "intact": 5276,
      "inreception": 5277,
      "intend": 5278,
      "##arn": 5279,
      "##arged": 5280,
      "##arted": 5281,
      "##araka": 5282,
      "locks": 5283,
      "##ilation": 5284,
      "##illed": 5285,
      "##ilings": 5286,
      "##ilkul": 5287,
      "commod": 5288,
      "##ieuse": 5289,
      "##iemb": 5290,
      "##tsservices": 5291,
      "locationgood": 5292,
      "locationclean": 5293,
      "locationnice": 5294,
      "cleaness": 5295,
      "cleanvery": 5296,
      "cleangood": 5297,
      "cleanstaff": 5298,
      "exhi": 5299,
      "excess": 5300,
      "exllent": 5301,
      "##uli": 5302,
      "##ulkar": 5303,
      "fry": 5304,
      "fram": 5305,
      "frhst": 5306,
      "pros": 5307,
      "stayall": 5308,
      "stayboo": 5309,
      "stayeasy": 5310,
      "staydelhi": 5311,
      "staycation": 5312,
      "als": 5313,
      "ali": 5314,
      "##ecooked": 5315,
      "##ecorated": 5316,
      "neven": 5317,
      "##veill": 5318,
      "nof": 5319,
      "nover": 5320,
      "note": 5321,
      "##utiya": 5322,
      "##perative": 5323,
      "arent": 5324,
      "##akti": 5325,
      "##ete": 5326,
      "##etly": 5327,
      "niceoverall": 5328,
      "##ades": 5329,
      "##icable": 5330,
      "##icien": 5331,
      "##ictable": 5332,
      "##icating": 5333,
      "##icacin": 5334,
      "##ailable": 5335,
      "##uri": 5336,
      "##ury": 5337,
      "##urate": 5338,
      "##urbs": 5339,
      "##acock": 5340,
      "##acceptable": 5341,
      "##acieuse": 5342,
      "atul": 5343,
      "withdraw": 5344,
      "servic": 5345,
      "servive": 5346,
      "servers": 5347,
      "serviable": 5348,
      "itws": 5349,
      "##iry": 5350,
      "##irit": 5351,
      "aval": 5352,
      "##aste": 5353,
      "##ayun": 5354,
      "availab": 5355,
      "proced": 5356,
      "proche": 5357,
      "provision": 5358,
      "profile": 5359,
      "serviced": 5360,
      "servicefriendly": 5361,
      "availablehotel": 5362,
      "onward": 5363,
      "##forms": 5364,
      "beach": 5365,
      "roomstaff": 5366,
      "chr": 5367,
      "chied": 5368,
      "chamb": 5369,
      "chutt": 5370,
      "chinese": 5371,
      "chotu": 5372,
      "chenk": 5373,
      "channel": 5374,
      "evalu": 5375,
      "helpfulat": 5376,
      "helpfully": 5377,
      "helpfulness": 5378,
      "weather": 5379,
      "##sture": 5380,
      "##stop": 5381,
      "##stuff": 5382,
      "##stituted": 5383,
      "friendl": 5384,
      "friendli": 5385,
      "greatly": 5386,
      "greatful": 5387,
      "##ienka": 5388,
      "##meanor": 5389,
      "spill": 5390,
      "spacial": 5391,
      "spicy": 5392,
      "spontane": 5393,
      "spacieuse": 5394,
      "spirit": 5395,
      "comforts": 5396,
      "breakfastespecially": 5397,
      "asist": 5398,
      "aswm": 5399,
      "##coming": 5400,
      "comfortablefood": 5401,
      "comfortablestaff": 5402,
      "comfortablethey": 5403,
      "welld": 5404,
      "##tyard": 5405,
      "##vernment": 5406,
      "##owed": 5407,
      "delay": 5408,
      "delist": 5409,
      "pls": 5410,
      "played": 5411,
      "plaid": 5412,
      "butter": 5413,
      "haik": 5414,
      "amit": 5415,
      "ample": 5416,
      "amig": 5417,
      "acss": 5418,
      "acting": 5419,
      "acced": 5420,
      "acceptable": 5421,
      "lied": 5422,
      "liking": 5423,
      "##lented": 5424,
      "questions": 5425,
      "quitar": 5426,
      "quiery": 5427,
      "##oury": 5428,
      "supr": 5429,
      "sujeet": 5430,
      "trs": 5431,
      "traces": 5432,
      "traf": 5433,
      "##gege": 5434,
      "##gement": 5435,
      "shd": 5436,
      "shos": 5437,
      "shout": 5438,
      "shif": 5439,
      "share": 5440,
      "shee": 5441,
      "shab": 5442,
      "sharing": 5443,
      "sharma": 5444,
      "shakti": 5445,
      "sold": 5446,
      "soanim": 5447,
      "##allowed": 5448,
      "therefore": 5449,
      "anu": 5450,
      "anim": 5451,
      "anany": 5452,
      "ankit": 5453,
      "ananad": 5454,
      "angege": 5455,
      "mean": 5456,
      "mehra": 5457,
      "##estri": 5458,
      "##estigate": 5459,
      "##chant": 5460,
      "##chreib": 5461,
      "##iences": 5462,
      "##hig": 5463,
      "hadnt": 5464,
      "##amo": 5465,
      "##amour": 5466,
      "excellentlocation": 5467,
      "##keeper": 5468,
      "booth": 5469,
      "nearly": 5470,
      "##iteiten": 5471,
      "##illing": 5472,
      "worries": 5473,
      "##azil": 5474,
      "experiance": 5475,
      "experienc": 5476,
      "##anted": 5477,
      "experiences": 5478,
      "##uster": 5479,
      "##roduced": 5480,
      "rests": 5481,
      "reside": 5482,
      "resem": 5483,
      "result": 5484,
      "resorts": 5485,
      "death": 5486,
      "detailed": 5487,
      "demeanor": 5488,
      "nothingvery": 5489,
      "nothingwor": 5490,
      "propertys": 5491,
      "propertyclean": 5492,
      "client": 5493,
      "climate": 5494,
      "claim": 5495,
      "cluster": 5496,
      "manor": 5497,
      "manna": 5498,
      "usa": 5499,
      "user": 5500,
      "##erstanding": 5501,
      "##olish": 5502,
      "overw": 5503,
      "overlooking": 5504,
      "contain": 5505,
      "concess": 5506,
      "contained": 5507,
      "contactless": 5508,
      "##usan": 5509,
      "##uses": 5510,
      "##ustable": 5511,
      "##ustan": 5512,
      "enqu": 5513,
      "enhance": 5514,
      "energetic": 5515,
      "enchant": 5516,
      "##onderful": 5517,
      "save": 5518,
      "saver": 5519,
      "sahi": 5520,
      "savers": 5521,
      "##ppy": 5522,
      "likeable": 5523,
      "aband": 5524,
      "abier": 5525,
      "pricebut": 5526,
      "maine": 5527,
      "mainne": 5528,
      "##vidual": 5529,
      "arif": 5530,
      "tip": 5531,
      "tied": 5532,
      "tipo": 5533,
      "##aganj": 5534,
      "##agstaff": 5535,
      "nthough": 5536,
      "behab": 5537,
      "behave": 5538,
      "##iva": 5539,
      "##iving": 5540,
      "##ivene": 5541,
      "##ivecomfortable": 5542,
      "##outout": 5543,
      "heater": 5544,
      "hepful": 5545,
      "##tals": 5546,
      "##tall": 5547,
      "needing": 5548,
      "needful": 5549,
      "recommending": 5550,
      "tooo": 5551,
      "perch": 5552,
      "perform": 5553,
      "period": 5554,
      "permiss": 5555,
      "stink": 5556,
      "stru": 5557,
      "stole": 5558,
      "stocked": 5559,
      "stinks": 5560,
      "stuck": 5561,
      "sttaf": 5562,
      "ago": 5563,
      "coozy": 5564,
      "##tauration": 5565,
      "faciliteiten": 5566,
      "##izon": 5567,
      "##izes": 5568,
      "fee": 5569,
      "##ify": 5570,
      "##ifactory": 5571,
      "##ilets": 5572,
      "##pital": 5573,
      "pets": 5574,
      "peek": 5575,
      "peeling": 5576,
      "peacock": 5577,
      "petals": 5578,
      "police": 5579,
      "policy": 5580,
      "##ksh": 5581,
      "evenings": 5582,
      "##istic": 5583,
      "preety": 5584,
      "predic": 5585,
      "anyway": 5586,
      "anymore": 5587,
      "perfectbathroom": 5588,
      "visits": 5589,
      "visitors": 5590,
      "##arka": 5591,
      "##feast": 5592,
      "attitud": 5593,
      "outgoing": 5594,
      "##impse": 5595,
      "uplo": 5596,
      "image": 5597,
      "qualitypr": 5598,
      "news": 5599,
      "facilitieswe": 5600,
      "desi": 5601,
      "deser": 5602,
      "deshal": 5603,
      "desde": 5604,
      "behaviourgood": 5605,
      "dispos": 5606,
      "discomfor": 5607,
      "dissap": 5608,
      "flur": 5609,
      "flaw": 5610,
      "offend": 5611,
      "supervis": 5612,
      "wali": 5613,
      "walked": 5614,
      "showstop": 5615,
      "easly": 5616,
      "##ptiemb": 5617,
      "minor": 5618,
      "mineral": 5619,
      "##abile": 5620,
      "##aborate": 5621,
      "##tainment": 5622,
      "##tainability": 5623,
      "beauty": 5624,
      "travs": 5625,
      "##raunt": 5626,
      "hospitalityfood": 5627,
      "beautifull": 5628,
      "namenities": 5629,
      "neatclean": 5630,
      "##unk": 5631,
      "##unity": 5632,
      "frendly": 5633,
      "tey": 5634,
      "tendran": 5635,
      "teaty": 5636,
      "adny": 5637,
      "adults": 5638,
      "aditya": 5639,
      "adhoc": 5640,
      "admir": 5641,
      "govt": 5642,
      "government": 5643,
      "unoc": 5644,
      "unclean": 5645,
      "unex": 5646,
      "unmarr": 5647,
      "unacceptable": 5648,
      "unhig": 5649,
      "familyhotel": 5650,
      "mums": 5651,
      "mujhe": 5652,
      "hasnt": 5653,
      "parfa": 5654,
      "parveen": 5655,
      "parfet": 5656,
      "doct": 5657,
      "dogs": 5658,
      "esa": 5659,
      "esp": 5660,
      "esci": 5661,
      "extremly": 5662,
      "interests": 5663,
      "intergr": 5664,
      "intercont": 5665,
      "wonderfully": 5666,
      "pleasnt": 5667,
      "diya": 5668,
      "dijer": 5669,
      "sex": 5670,
      "season": 5671,
      "septiemb": 5672,
      "incase": 5673,
      "cleanlinessi": 5674,
      "##finitely": 5675,
      "##uming": 5676,
      "##umate": 5677,
      "deliciously": 5678,
      "definti": 5679,
      "definetly": 5680,
      "peoples": 5681,
      "appart": 5682,
      "muchi": 5683,
      "##othel": 5684,
      "courtyard": 5685,
      "##redictable": 5686,
      "homemade": 5687,
      "##venient": 5688,
      "fancy": 5689,
      "##ephone": 5690,
      "##shine": 5691,
      "##00rs": 5692,
      "##00hrs": 5693,
      "compare": 5694,
      "compact": 5695,
      "comprom": 5696,
      "buck": 5697,
      "bucks": 5698,
      "indea": 5699,
      "inderpreet": 5700,
      "##ongs": 5701,
      "supporting": 5702,
      "##iber": 5703,
      "aware": 5704,
      "awea": 5705,
      "awsome": 5706,
      "##ocks": 5707,
      "become": 5708,
      "tastes": 5709,
      "ambienc": 5710,
      "personality": 5711,
      "caretaker": 5712,
      "dirti": 5713,
      "entrence": 5714,
      "housekeeper": 5715,
      "professionel": 5716,
      "professionnal": 5717,
      "busing": 5718,
      "cheers": 5719,
      "cheerful": 5720,
      "cheating": 5721,
      "cheats": 5722,
      "cheering": 5723,
      "nspecially": 5724,
      "nsusan": 5725,
      "ower": 5726,
      "checkinthe": 5727,
      "dirtyvery": 5728,
      "individual": 5729,
      "distancegood": 5730,
      "trainings": 5731,
      "awesomevalue": 5732,
      "##ando": 5733,
      "##andid": 5734,
      "shortish": 5735,
      "lemon": 5736,
      "leaking": 5737,
      "leafy": 5738,
      "learn": 5739,
      "outages": 5740,
      "##iorge": 5741,
      "backup": 5742,
      "larger": 5743,
      "reasons": 5744,
      "knocks": 5745,
      "##ipe": 5746,
      "##ipated": 5747,
      "##ipment": 5748,
      "hourly": 5749,
      "mranuj": 5750,
      "seclud": 5751,
      "wentt": 5752,
      "dinners": 5753,
      "poorly": 5754,
      "poorroom": 5755,
      "kitchens": 5756,
      "##oint": 5757,
      "##ending": 5758,
      "teamsrooms": 5759,
      "##urniture": 5760,
      "poster": 5761,
      "possibly": 5762,
      "ways": 5763,
      "lovee": 5764,
      "##hoto": 5765,
      "insist": 5766,
      "insonoris": 5767,
      "install": 5768,
      "cleaningmain": 5769,
      "taxes": 5770,
      "freshest": 5771,
      "vary": 5772,
      "stars": 5773,
      "stark": 5774,
      "starts": 5775,
      "atms": 5776,
      "behaviors": 5777,
      "declin": 5778,
      "effective": 5779,
      "efficien": 5780,
      "sitio": 5781,
      "worker": 5782,
      "workers": 5783,
      "seem": 5784,
      "seems": 5785,
      "restrooms": 5786,
      "restuar": 5787,
      "restraunt": 5788,
      "actull": 5789,
      "##located": 5790,
      "standout": 5791,
      "nevertheless": 5792,
      "dental": 5793,
      "mode": 5794,
      "picks": 5795,
      "adding": 5796,
      "10pm": 5797,
      "trips": 5798,
      "bata": 5799,
      "baad": 5800,
      "bahi": 5801,
      "baisla": 5802,
      "asset": 5803,
      "assuming": 5804,
      "constant": 5805,
      "marks": 5806,
      "marvel": 5807,
      "carte": 5808,
      "carbon": 5809,
      "keeper": 5810,
      "##iveroom": 5811,
      "##haan": 5812,
      "##happy": 5813,
      "karne": 5814,
      "ndont": 5815,
      "satya": 5816,
      "satifactory": 5817,
      "##print": 5818,
      "humayun": 5819,
      "nbien": 5820,
      "nbest": 5821,
      "nbedsheets": 5822,
      "##itage": 5823,
      "##arti": 5824,
      "##articul": 5825,
      "appreciable": 5826,
      "bright": 5827,
      "bruit": 5828,
      "bruy": 5829,
      "brought": 5830,
      "brakfast": 5831,
      "brazil": 5832,
      "brothel": 5833,
      "basin": 5834,
      "locals": 5835,
      "allows": 5836,
      "bothered": 5837,
      "fatal": 5838,
      "fault": 5839,
      "longer": 5840,
      "niti": 5841,
      "nitinthe": 5842,
      "##mpath": 5843,
      "specialhe": 5844,
      "facilitygood": 5845,
      "##anka": 5846,
      "nher": 5847,
      "nhis": 5848,
      "decorating": 5849,
      "nwith": 5850,
      "nwhere": 5851,
      "nwell": 5852,
      "nwhile": 5853,
      "nworst": 5854,
      "nwonderful": 5855,
      "term": 5856,
      "wale": 5857,
      "waist": 5858,
      "waha": 5859,
      "speisera": 5860,
      "ensuite": 5861,
      "hygienicfood": 5862,
      "ordering": 5863,
      "15aug": 5864,
      "bloom": 5865,
      "blow": 5866,
      "bliss": 5867,
      "birds": 5868,
      "matching": 5869,
      "photo": 5870,
      "swtich": 5871,
      "settling": 5872,
      "opening": 5873,
      "screen": 5874,
      "scrummy": 5875,
      "scorching": 5876,
      "sooo": 5877,
      "soooooo": 5878,
      "improving": 5879,
      "refilling": 5880,
      "complemant": 5881,
      "hands": 5882,
      "confused": 5883,
      "conference": 5884,
      "photosservice": 5885,
      "photoshop": 5886,
      "nmuch": 5887,
      "menus": 5888,
      "mislead": 5889,
      "##tails": 5890,
      "estafa": 5891,
      "chargeable": 5892,
      "charge12": 5893,
      "entertainment": 5894,
      "waiter": 5895,
      "waiters": 5896,
      "corres": 5897,
      "corpor": 5898,
      "costly": 5899,
      "costomers": 5900,
      "downsta": 5901,
      "glazing": 5902,
      "glowing": 5903,
      "glamour": 5904,
      "glimpse": 5905,
      "idli": 5906,
      "nfree": 5907,
      "nfurniture": 5908,
      "##lessly": 5909,
      "suggestion": 5910,
      "demolish": 5911,
      "accurate": 5912,
      "heartwarm": 5913,
      "prepaid": 5914,
      "coffe": 5915,
      "wholehe": 5916,
      "empty": 5917,
      "emphas": 5918,
      "final": 5919,
      "malls": 5920,
      "n24h": 5921,
      "swear": 5922,
      "underg": 5923,
      "invite": 5924,
      "invol": 5925,
      "invalu": 5926,
      "invoicing": 5927,
      "invasive": 5928,
      "investigate": 5929,
      "proximit": 5930,
      "drivers": 5931,
      "horizon": 5932,
      "##ergency": 5933,
      "repection": 5934,
      "replace": 5935,
      "processed": 5936,
      "processes": 5937,
      "organise": 5938,
      "organizes": 5939,
      "120": 5940,
      "1230": 5941,
      "automatically": 5942,
      "costs": 5943,
      "jasoal": 5944,
      "jasbir": 5945,
      "nonly": 5946,
      "nresture": 5947,
      "rs800": 5948,
      "plane": 5949,
      "planing": 5950,
      "planning": 5951,
      "meeting": 5952,
      "meetings": 5953,
      "willingness": 5954,
      "secured": 5955,
      "issued": 5956,
      "towelsthey": 5957,
      "keinen": 5958,
      "nico": 5959,
      "phenomen": 5960,
      "vibrant": 5961,
      "receiver": 5962,
      "canceled": 5963,
      "homesta": 5964,
      "homecooked": 5965,
      "powerful": 5966,
      "violated": 5967,
      "behavedroom": 5968,
      "explicacin": 5969,
      "chargable": 5970,
      "barely": 5971,
      "barbad": 5972,
      "cleam": 5973,
      "cleared": 5974,
      "clealiness": 5975,
      "cattle": 5976,
      "embience": 5977,
      "stylish": 5978,
      "##understanding": 5979,
      "fraudulent": 5980,
      "##ificant": 5981,
      "managedthe": 5982,
      "breakfeast": 5983,
      "distractions": 5984,
      "reduc": 5985,
      "contacto": 5986,
      "contactos": 5987,
      "abdar": 5988,
      "##unga": 5989,
      "speednot": 5990,
      "ngym": 5991,
      "nguy": 5992,
      "nguests": 5993,
      "namely": 5994,
      "namrita": 5995,
      "nambience": 5996,
      "ncleaning": 5997,
      "recall": 5998,
      "recover": 5999,
      "recipe": 6000,
      "chaos": 6001,
      "chaotic": 6002,
      "missed": 6003,
      "missunderstanding": 6004,
      "dropoff": 6005,
      "curry": 6006,
      "curren": 6007,
      "current": 6008,
      "iguals": 6009,
      "moh": 6010,
      "moat": 6011,
      "vez": 6012,
      "##staffs": 6013,
      "hairs": 6014,
      "memories": 6015,
      "strongly": 6016,
      "strongrestaurants": 6017,
      "disco": 6018,
      "discover": 6019,
      "approx": 6020,
      "trainstation": 6021,
      "community": 6022,
      "communicating": 6023,
      "calmness": 6024,
      "bedsheetsmos": 6025,
      "billing": 6026,
      "dusty": 6027,
      "dustbin": 6028,
      "earn": 6029,
      "earth": 6030,
      "khush": 6031,
      "pug": 6032,
      "siamo": 6033,
      "##iaur": 6034,
      "##puri": 6035,
      "attach": 6036,
      "reserva": 6037,
      "unpredictable": 6038,
      "searched": 6039,
      "apologetic": 6040,
      "manneredgreat": 6041,
      "confirmacin": 6042,
      "box": 6043,
      "boasts": 6044,
      "joeys": 6045,
      "john": 6046,
      "mila": 6047,
      "tarnishing": 6048,
      "wishes": 6049,
      "##ritating": 6050,
      "introduced": 6051,
      "comfortabl": 6052,
      "accepting": 6053,
      "summit": 6054,
      "substituted": 6055,
      "control": 6056,
      "continu": 6057,
      "nspace": 6058,
      "nspacious": 6059,
      "upgradedto": 6060,
      "creatively": 6061,
      "duo": 6062,
      "operational": 6063,
      "##star": 6064,
      "##ika": 6065,
      "##parately": 6066,
      "##worthy": 6067,
      "##manager": 6068,
      "exchanget": 6069,
      "negoti": 6070,
      "presence": 6071,
      "thoughtful": 6072,
      "cafs": 6073,
      "scammers": 6074,
      "1162": 6075,
      "ceilings": 6076,
      "cerrad": 6077,
      "cabin": 6078,
      "irritating": 6079,
      "ncost": 6080,
      "ncorrect": 6081,
      "nlot": 6082,
      "nlots": 6083,
      "sonal": 6084,
      "##neder": 6085,
      "##laim": 6086,
      "washed": 6087,
      "##respect": 6088,
      "realized": 6089,
      "stressfree": 6090,
      "preferred": 6091,
      "24hours": 6092,
      "majnu": 6093,
      "speaking": 6094,
      "remotely": 6095,
      "specifications": 6096,
      "idea": 6097,
      "embassies": 6098,
      "answering": 6099,
      "##quitoes": 6100,
      "beschreib": 6101,
      "geo": 6102,
      "getaway": 6103,
      "goon": 6104,
      "npas": 6105,
      "nphoto": 6106,
      "nparticul": 6107,
      "nalways": 6108,
      "raising": 6109,
      "rudimentary": 6110,
      "tomorrow": 6111,
      "yoga": 6112,
      "##ucated": 6113,
      "alternate": 6114,
      "sunshine": 6115,
      "sunstar": 6116,
      "flexibleallowed": 6117,
      "furthermore": 6118,
      "occupied": 6119,
      "occasions": 6120,
      "0503": 6121,
      "0500hrs": 6122,
      "kahi": 6123,
      "movie": 6124,
      "sympath": 6125,
      "signal": 6126,
      "significant": 6127,
      "telling": 6128,
      "telephone": 6129,
      "##ribimos": 6130,
      "proofing": 6131,
      "neasy": 6132,
      "socializing": 6133,
      "smelly": 6134,
      "escribimos": 6135,
      "interesting": 6136,
      "mrpraveen": 6137,
      "understanding": 6138,
      "xa0i": 6139,
      "beni": 6140,
      "bananas": 6141,
      "emergency": 6142,
      "gk2": 6143,
      "jai": 6144,
      "jaana": 6145,
      "jamia": 6146,
      "parece": 6147,
      "parent": 6148,
      "rainy": 6149,
      "write": 6150,
      "wrost": 6151,
      "written": 6152,
      "locatted": 6153,
      "nexcellente": 6154,
      "##irrels": 6155,
      "chandi": 6156,
      "spoil": 6157,
      "spoke": 6158,
      "spoilt": 6159,
      "amongst": 6160,
      "trustworthy": 6161,
      "anno": 6162,
      "adjustable": 6163,
      "touristatt": 6164,
      "responses": 6165,
      "positioned": 6166,
      "varietiesrooms": 6167,
      "usefull": 6168,
      "louder": 6169,
      "followed": 6170,
      "4050": 6171,
      "cuts": 6172,
      "cuisine": 6173,
      "cuando": 6174,
      "camera": 6175,
      "cups": 6176,
      "dryer": 6177,
      "drying": 6178,
      "editing": 6179,
      "edgy": 6180,
      "educated": 6181,
      "fourth": 6182,
      "hike": 6183,
      "mbps": 6184,
      "obvious": 6185,
      "panes": 6186,
      "panoram": 6187,
      "packed": 6188,
      "posting": 6189,
      "sketch": 6190,
      "skills": 6191,
      "skyin": 6192,
      "excelent": 6193,
      "chillout": 6194,
      "supplied": 6195,
      "solved": 6196,
      "##ambience": 6197,
      "conciorge": 6198,
      "sabse": 6199,
      "sabamos": 6200,
      "sabzi": 6201,
      "maintaint": 6202,
      "display": 6203,
      "cocktails": 6204,
      "buys": 6205,
      "relieved": 6206,
      "colony": 6207,
      "vikash": 6208,
      "2022": 6209,
      "reccomended": 6210,
      "reccomendations": 6211,
      "systems": 6212,
      "network": 6213,
      "##ickshaws": 6214,
      "circuit": 6215,
      "daughters": 6216,
      "malviy": 6217,
      "14aug": 6218,
      "1600": 6219,
      "700m": 6220,
      "bhulkar": 6221,
      "bhagstaff": 6222,
      "dwaraka": 6223,
      "dwarka": 6224,
      "equipment": 6225,
      "hyge": 6226,
      "hindi": 6227,
      "hindustan": 6228,
      "landing": 6229,
      "navigate": 6230,
      "navailable": 6231,
      "savoury": 6232,
      "verry": 6233,
      "##2023": 6234,
      "thikana": 6235,
      "repeat": 6236,
      "chattarpur": 6237,
      "plugs": 6238,
      "depart": 6239,
      "depending": 6240,
      "sagar": 6241,
      "dispense": 6242,
      "dispensary": 6243,
      "companylocation": 6244,
      "nsecondour": 6245,
      "effortsfood": 6246,
      "genuinely": 6247,
      "nfrom": 6248,
      "nfriendly": 6249,
      "escorted": 6250,
      "emails": 6251,
      "footprint": 6252,
      "schedules": 6253,
      "300m": 6254,
      "45kms": 6255,
      "boomika": 6256,
      "benefit": 6257,
      "ecofriendly": 6258,
      "eclect": 6259,
      "focus": 6260,
      "focused": 6261,
      "history": 6262,
      "historical": 6263,
      "hygene": 6264,
      "hygenic": 6265,
      "joints": 6266,
      "ladies": 6267,
      "ladny": 6268,
      "mtro": 6269,
      "mtrs": 6270,
      "massage": 6271,
      "ncomfy": 6272,
      "nimmaculate": 6273,
      "nshall": 6274,
      "nshoutout": 6275,
      "ntoilets": 6276,
      "pipe": 6277,
      "ratio": 6278,
      "square": 6279,
      "squirrels": 6280,
      "sensational": 6281,
      "testyoverall": 6282,
      "udays": 6283,
      "##viwar": 6284,
      "##basically": 6285,
      "##oons": 6286,
      "##estatas": 6287,
      "progressed": 6288,
      "qualche": 6289,
      "trovi": 6290,
      "trovati": 6291,
      "sockets": 6292,
      "debit": 6293,
      "clineliness": 6294,
      "##outeous": 6295,
      "strolling": 6296,
      "strolls": 6297,
      "aggressively": 6298,
      "aggressiva": 6299,
      "guiding": 6300,
      "guidance": 6301,
      "flooded": 6302,
      "cooperativecomfortable": 6303,
      "cooperativeroom": 6304,
      "freinds": 6305,
      "freindly": 6306,
      "unwanted": 6307,
      "commute": 6308,
      "commuting": 6309,
      "localization": 6310,
      "localizao": 6311,
      "purchase": 6312,
      "purchased": 6313,
      "swiftly": 6314,
      "remaining": 6315,
      "refresher": 6316,
      "storebasically": 6317,
      "objection": 6318,
      "objective": 6319,
      "materials": 6320,
      "marriott": 6321,
      "marriotts": 6322,
      "anticipated": 6323,
      "0900": 6324,
      "bike": 6325,
      "boulevard": 6326,
      "domin": 6327,
      "dosas": 6328,
      "failure": 6329,
      "garvit": 6330,
      "kabir": 6331,
      "kashmir": 6332,
      "nrude": 6333,
      "nareneder": 6334,
      "russia": 6335,
      "trend": 6336,
      "tutto": 6337,
      "utilities": 6338,
      "ventilation": 6339,
      "wooden": 6340,
      "yahaan": 6341,
      "iskcon": 6342,
      "forgotten": 6343,
      "lodge": 6344,
      "injury": 6345,
      "excuse": 6346,
      "princess": 6347,
      "practical": 6348,
      "staythat": 6349,
      "productsservices": 6350,
      "hairdryer": 6351,
      "liquor": 6352,
      "sustainability": 6353,
      "manegement": 6354,
      "mannersreception": 6355,
      "arrogant": 6356,
      "beheviwar": 6357,
      "extrieur": 6358,
      "perfec": 6359,
      "feedback": 6360,
      "pearson": 6361,
      "attraction": 6362,
      "attractivene": 6363,
      "outdoor": 6364,
      "flavours": 6365,
      "neatnessnear": 6366,
      "tejendra": 6367,
      "docs": 6368,
      "interrupted": 6369,
      "thankyouu": 6370,
      "promoting": 6371,
      "instantly": 6372,
      "effectiveness": 6373,
      "consumer": 6374,
      "balanced": 6375,
      "ndefinitely": 6376,
      "ndrunk": 6377,
      "territory": 6378,
      "corridor": 6379,
      "soundproofing": 6380,
      "preparations": 6381,
      "represents": 6382,
      "autorickshaws": 6383,
      "nrestauration": 6384,
      "ignou": 6385,
      "apologised": 6386,
      "engagement": 6387,
      "unnecessarily": 6388,
      "2km": 6389,
      "5seconds": 6390,
      "9415": 6391,
      "akash": 6392,
      "aakash": 6393,
      "amezing": 6394,
      "bnb": 6395,
      "brekfast": 6396,
      "bulding": 6397,
      "balloons": 6398,
      "bustling": 6399,
      "bardzo": 6400,
      "bipin": 6401,
      "backside": 6402,
      "crew": 6403,
      "coustom": 6404,
      "cinem": 6405,
      "cctv": 6406,
      "czysta": 6407,
      "celsius": 6408,
      "dnde": 6409,
      "doubt": 6410,
      "deterior": 6411,
      "digital": 6412,
      "daban": 6413,
      "dashrath": 6414,
      "daryaganj": 6415,
      "dangerous": 6416,
      "egos": 6417,
      "fuel": 6418,
      "fecha": 6419,
      "grooming": 6420,
      "ghatiya": 6421,
      "hicimos": 6422,
      "herself": 6423,
      "husband": 6424,
      "jatin": 6425,
      "journey": 6426,
      "jolly": 6427,
      "kudos": 6428,
      "lcoute": 6429,
      "lyak": 6430,
      "lines": 6431,
      "lazienka": 6432,
      "language": 6433,
      "mix": 6434,
      "mvm": 6435,
      "million": 6436,
      "mocking": 6437,
      "ntaps": 6438,
      "ningn": 6439,
      "nrohit": 6440,
      "nseparately": 6441,
      "nherewe": 6442,
      "nplace": 6443,
      "opportunity": 6444,
      "ogrd": 6445,
      "pvr": 6446,
      "pedestri": 6447,
      "popular": 6448,
      "pokoj": 6449,
      "pullman": 6450,
      "pakhumate": 6451,
      "rishi": 6452,
      "rarely": 6453,
      "routine": 6454,
      "ripoff": 6455,
      "rinku": 6456,
      "roshan": 6457,
      "sfaff": 6458,
      "surname": 6459,
      "talented": 6460,
      "telfono": 6461,
      "tucked": 6462,
      "umpal": 6463,
      "vfs": 6464,
      "vastness": 6465,
      "volume": 6466,
      "yellow": 6467,
      "##ponds": 6468,
      "##homely": 6469,
      "threatening": 6470,
      "thabilkul": 6471,
      "andselint": 6472,
      "goodthanks": 6473,
      "goodeverybody": 6474,
      "toilrtries": 6475,
      "recomandid": 6476,
      "resolutionbathroom": 6477,
      "reorganised": 6478,
      "intended": 6479,
      "##artedly": 6480,
      "commode": 6481,
      "cleangoodstaffs": 6482,
      "exhibition": 6483,
      "frames": 6484,
      "frhstck": 6485,
      "staybook": 6486,
      "##veillance": 6487,
      "availabel": 6488,
      "chiedo": 6489,
      "chambre": 6490,
      "chuttiya": 6491,
      "evaluate": 6492,
      "friendliest": 6493,
      "spontaneous": 6494,
      "asistwas": 6495,
      "welldecorated": 6496,
      "haikoi": 6497,
      "amigos": 6498,
      "acssesbility": 6499,
      "acceder": 6500,
      "suprise": 6501,
      "trafic": 6502,
      "shifted": 6503,
      "sheetal": 6504,
      "animal": 6505,
      "ananyya": 6506,
      "angegeben": 6507,
      "mehrauli": 6508,
      "experienceroom": 6509,
      "resemble": 6510,
      "nothingworst": 6511,
      "claiming": 6512,
      "concessions": 6513,
      "enquiry": 6514,
      "enchanting": 6515,
      "abandoned": 6516,
      "abierto": 6517,
      "mainnew": 6518,
      "behabiaur": 6519,
      "hepfull": 6520,
      "performance": 6521,
      "permission": 6522,
      "stinky": 6523,
      "stolen": 6524,
      "predicament": 6525,
      "attitudestatas": 6526,
      "uploaded": 6527,
      "qualityprice": 6528,
      "deshalb": 6529,
      "disposition": 6530,
      "discomforts": 6531,
      "dissapoint": 6532,
      "supervisor": 6533,
      "showstopper": 6534,
      "admirable": 6535,
      "unoccupied": 6536,
      "unmarried": 6537,
      "parfait": 6538,
      "parfetc": 6539,
      "doctor": 6540,
      "intergration": 6541,
      "intercontinental": 6542,
      "dijeron": 6543,
      "septiembre": 6544,
      "defintiely": 6545,
      "appartment": 6546,
      "compromise": 6547,
      "bucket": 6548,
      "aweaome": 6549,
      "dirtiest": 6550,
      "secluded": 6551,
      "cleaningmaintenance": 6552,
      "declined": 6553,
      "efficiency": 6554,
      "restuarant": 6555,
      "actullay": 6556,
      "marvelous": 6557,
      "humayuns": 6558,
      "bruyant": 6559,
      "speiseraum": 6560,
      "swtiched": 6561,
      "complemantry": 6562,
      "charge1200rs": 6563,
      "corresponds": 6564,
      "corporative": 6565,
      "downstairs": 6566,
      "heartwarming": 6567,
      "wholeheartedly": 6568,
      "emphasize": 6569,
      "undergoing": 6570,
      "invaluable": 6571,
      "replaced": 6572,
      "1230pm": 6573,
      "nresturent": 6574,
      "phenomenal": 6575,
      "homestay": 6576,
      "reducing": 6577,
      "nguys": 6578,
      "currency": 6579,
      "igualsin": 6580,
      "bedsheetsmosquitoes": 6581,
      "khushboo": 6582,
      "continuously": 6583,
      "exchangethey": 6584,
      "negotiated": 6585,
      "cerrado": 6586,
      "beschreibung": 6587,
      "nparticularly": 6588,
      "05032023": 6589,
      "touristattractions": 6590,
      "panoramic": 6591,
      "sketchy": 6592,
      "skyinn": 6593,
      "eclectic": 6594,
      "attractiveneed": 6595,
      "deteriorating": 6596,
      "dashrathpuri": 6597,
      "pedestrians": 6598
    }
  }
}